
// This is a TensorFlow Lite model file that has been converted into a C data
// array using the tensorflow.lite.util.convert_bytes_to_c_source() function.
// This form is useful for compiling into a binary for devices that don't have a
// file system.

#include "mnist_tflite.h"

// We need to keep the data array aligned on some architectures.
#ifdef __has_attribute
#define HAVE_ATTRIBUTE(x) __has_attribute(x)
#else
#define HAVE_ATTRIBUTE(x) 0
#endif
#if HAVE_ATTRIBUTE(aligned) || (defined(__GNUC__) && !defined(__clang__))
#define DATA_ALIGN_ATTRIBUTE __attribute__((aligned(4)))
#else
#define DATA_ALIGN_ATTRIBUTE
#endif

const unsigned char mnist_tflite[] DATA_ALIGN_ATTRIBUTE = {
    0x1c, 0x00, 0x00, 0x00, 0x54, 0x46, 0x4c, 0x33, 0x00, 0x00, 0x12, 0x00, 0x1c,
    0x00, 0x04, 0x00, 0x08, 0x00, 0x0c, 0x00, 0x10, 0x00, 0x14, 0x00, 0x00, 0x00,
    0x18, 0x00, 0x12, 0x00, 0x00, 0x00, 0x03, 0x00, 0x00, 0x00, 0x80, 0x1d, 0x00,
    0x00, 0x8c, 0x14, 0x00, 0x00, 0x74, 0x14, 0x00, 0x00, 0x3c, 0x00, 0x00, 0x00,
    0x04, 0x00, 0x00, 0x00, 0x01, 0x00, 0x00, 0x00, 0x0c, 0x00, 0x00, 0x00, 0x08,
    0x00, 0x0c, 0x00, 0x04, 0x00, 0x08, 0x00, 0x08, 0x00, 0x00, 0x00, 0x08, 0x00,
    0x00, 0x00, 0x10, 0x00, 0x00, 0x00, 0x13, 0x00, 0x00, 0x00, 0x6d, 0x69, 0x6e,
    0x5f, 0x72, 0x75, 0x6e, 0x74, 0x69, 0x6d, 0x65, 0x5f, 0x76, 0x65, 0x72, 0x73,
    0x69, 0x6f, 0x6e, 0x00, 0x11, 0x00, 0x00, 0x00, 0x2c, 0x14, 0x00, 0x00, 0x18,
    0x14, 0x00, 0x00, 0xec, 0x13, 0x00, 0x00, 0xc8, 0x13, 0x00, 0x00, 0x84, 0x13,
    0x00, 0x00, 0x60, 0x13, 0x00, 0x00, 0xac, 0x03, 0x00, 0x00, 0x08, 0x03, 0x00,
    0x00, 0xb4, 0x00, 0x00, 0x00, 0xa8, 0x00, 0x00, 0x00, 0x94, 0x00, 0x00, 0x00,
    0x80, 0x00, 0x00, 0x00, 0x6c, 0x00, 0x00, 0x00, 0x58, 0x00, 0x00, 0x00, 0x44,
    0x00, 0x00, 0x00, 0x30, 0x00, 0x00, 0x00, 0x04, 0x00, 0x00, 0x00, 0x8a, 0xeb,
    0xff, 0xff, 0x04, 0x00, 0x00, 0x00, 0x10, 0x00, 0x00, 0x00, 0x31, 0x2e, 0x35,
    0x2e, 0x30, 0x00, 0x00, 0x00, 0x00, 0x00, 0x00, 0x00, 0x00, 0x00, 0x00, 0x00,
    0x00, 0x00, 0x00, 0x00, 0x00, 0x00, 0x00, 0x00, 0x00, 0x00, 0x00, 0x00, 0x60,
    0xe3, 0xff, 0xff, 0x00, 0x00, 0x00, 0x00, 0x00, 0x00, 0x00, 0x00, 0x00, 0x00,
    0x00, 0x00, 0x70, 0xe3, 0xff, 0xff, 0x00, 0x00, 0x00, 0x00, 0x00, 0x00, 0x00,
    0x00, 0x00, 0x00, 0x00, 0x00, 0x80, 0xe3, 0xff, 0xff, 0x00, 0x00, 0x00, 0x00,
    0x00, 0x00, 0x00, 0x00, 0x00, 0x00, 0x00, 0x00, 0x90, 0xe3, 0xff, 0xff, 0x00,
    0x00, 0x00, 0x00, 0x00, 0x00, 0x00, 0x00, 0x00, 0x00, 0x00, 0x00, 0xa0, 0xe3,
    0xff, 0xff, 0x00, 0x00, 0x00, 0x00, 0x00, 0x00, 0x00, 0x00, 0x00, 0x00, 0x00,
    0x00, 0xb0, 0xe3, 0xff, 0xff, 0x00, 0x00, 0x00, 0x00, 0x00, 0x00, 0x00, 0x00,
    0x00, 0x00, 0x00, 0x00, 0xc0, 0xe3, 0xff, 0xff, 0x00, 0x00, 0x00, 0x00, 0x1a,
    0xec, 0xff, 0xff, 0x04, 0x00, 0x00, 0x00, 0x40, 0x02, 0x00, 0x00, 0xc2, 0x96,
    0x15, 0xbf, 0x63, 0x55, 0x18, 0xbf, 0x26, 0x76, 0x93, 0xbe, 0x52, 0xa3, 0xe5,
    0xbe, 0xa0, 0x55, 0xfa, 0xbe, 0x9b, 0x31, 0x82, 0xbe, 0x2f, 0x95, 0x1c, 0x3e,
    0xc4, 0x3c, 0xa8, 0xbe, 0xbb, 0xe7, 0x0d, 0xbf, 0x79, 0x0c, 0xaf, 0xbe, 0x57,
    0x84, 0xcb, 0xbe, 0x3b, 0x9c, 0xe5, 0xbe, 0x3d, 0x9d, 0xaa, 0x3e, 0x9d, 0x71,
    0x0f, 0xbe, 0x0d, 0xd3, 0x00, 0xbe, 0xc7, 0x41, 0x1d, 0x3e, 0x0b, 0x44, 0x0c,
    0x3e, 0xf0, 0xba, 0x90, 0xbe, 0x39, 0x12, 0x6d, 0xbe, 0x63, 0xab, 0xaf, 0x3b,
    0xfb, 0xc9, 0x45, 0x3d, 0xcb, 0x11, 0x2a, 0xbe, 0xd2, 0x9a, 0x10, 0xbe, 0x12,
    0xd5, 0x2d, 0xbe, 0xd9, 0x33, 0x9e, 0x3d, 0x0d, 0x17, 0xe4, 0x3e, 0xee, 0x9f,
    0x16, 0x3f, 0x0a, 0x27, 0x35, 0x3e, 0x0f, 0xd1, 0x04, 0x3f, 0x5a, 0x60, 0x5f,
    0x3e, 0x1b, 0x0a, 0x0f, 0x3e, 0x2b, 0x63, 0xb3, 0x3d, 0xb9, 0x16, 0xe7, 0x3e,
    0xb6, 0x6c, 0xda, 0x3e, 0xe5, 0xf6, 0x98, 0x3e, 0x97, 0xd0, 0xf9, 0xbc, 0x3c,
    0x16, 0x93, 0x3d, 0xc9, 0xdf, 0xe0, 0x3d, 0xe9, 0x79, 0xf2, 0x3e, 0x67, 0x32,
    0xe7, 0x3e, 0x72, 0x7d, 0xe4, 0xba, 0xf2, 0x0e, 0x06, 0xbe, 0x5d, 0x9c, 0x46,
    0xbe, 0xe6, 0x0b, 0xb2, 0x3e, 0x86, 0x36, 0x06, 0xbf, 0xf0, 0x70, 0x98, 0xbd,
    0xc7, 0x97, 0xdf, 0xbe, 0x78, 0xa1, 0xde, 0xbb, 0x5d, 0x09, 0xee, 0x3e, 0x10,
    0xb4, 0x1f, 0x3e, 0x1a, 0xf6, 0x07, 0x3e, 0x9a, 0x83, 0x93, 0x3e, 0xd2, 0xe7,
    0xac, 0xbd, 0xf6, 0x2a, 0x8a, 0xbe, 0x1f, 0x7c, 0x35, 0xbe, 0x8e, 0xaf, 0x84,
    0x3e, 0x0e, 0x37, 0xc2, 0xbe, 0x1e, 0x71, 0xb3, 0x3d, 0x6a, 0xb3, 0x2c, 0xbe,
    0xda, 0x5b, 0x26, 0x3e, 0xb2, 0xce, 0x9c, 0x3e, 0x7b, 0x48, 0xef, 0x3e, 0x99,
    0xdd, 0x7e, 0xbd, 0x9e, 0xaf, 0x60, 0x3e, 0xe4, 0xfd, 0x5c, 0x3d, 0xc9, 0x7d,
    0xb8, 0xbe, 0x32, 0x5d, 0x75, 0xbe, 0x4b, 0xd0, 0x3d, 0x3f, 0x3c, 0x47, 0x27,
    0xbe, 0xc2, 0xe6, 0x13, 0xbe, 0x15, 0x57, 0x3c, 0xbc, 0x83, 0xa2, 0x94, 0x3e,
    0x1f, 0xf7, 0xcb, 0x3d, 0xb1, 0xf7, 0x63, 0x3e, 0xce, 0xad, 0x77, 0xbd, 0x1c,
    0xb6, 0x11, 0x3e, 0x77, 0x19, 0x86, 0xbe, 0x5f, 0x9f, 0x96, 0xbe, 0x7a, 0xac,
    0x0b, 0xbd, 0xa9, 0x69, 0x5d, 0x3e, 0xa4, 0xfc, 0xa2, 0xbe, 0x59, 0x64, 0x02,
    0xbe, 0x17, 0x49, 0xd2, 0xbd, 0xd5, 0x0b, 0x8d, 0x3e, 0x70, 0xa2, 0xf3, 0x3e,
    0xaf, 0x9d, 0xaa, 0xbe, 0x51, 0x5c, 0xad, 0x3e, 0x84, 0xb1, 0x2e, 0x3f, 0x40,
    0xaa, 0x09, 0x3f, 0xb2, 0x29, 0x55, 0xbd, 0xdf, 0xff, 0xda, 0x3d, 0xbb, 0x07,
    0x12, 0x3f, 0x2a, 0x29, 0x01, 0xbe, 0x01, 0x62, 0xaf, 0xbc, 0xfc, 0x61, 0xac,
    0xbe, 0x1b, 0xf4, 0x10, 0x3f, 0xc9, 0x23, 0x2d, 0x3e, 0x26, 0x23, 0x81, 0xbe,
    0x29, 0xd2, 0xb3, 0x3e, 0xb8, 0x8d, 0xf6, 0x3e, 0x4e, 0x0e, 0x0b, 0x3f, 0xda,
    0x13, 0x07, 0xbd, 0xce, 0x9b, 0x18, 0xbd, 0x1c, 0xf2, 0x31, 0x3f, 0xc2, 0x96,
    0xe7, 0x3e, 0xea, 0xe0, 0xa1, 0x3e, 0xb4, 0xf4, 0xd0, 0x3e, 0x74, 0x5a, 0x09,
    0x3f, 0x0f, 0x60, 0x16, 0xbf, 0xd2, 0x6a, 0xa4, 0xbe, 0x51, 0xca, 0x3c, 0xbf,
    0xc4, 0xb9, 0xa0, 0x3e, 0xd7, 0x9f, 0xcb, 0x3c, 0x5e, 0x55, 0xb2, 0x3e, 0x23,
    0x23, 0x2e, 0xbe, 0x1c, 0x09, 0x0f, 0xbe, 0x47, 0x5b, 0x95, 0x3e, 0xae, 0x43,
    0xd9, 0x3e, 0xa2, 0x61, 0xd0, 0x3e, 0x9b, 0x6a, 0xda, 0xbd, 0xca, 0x76, 0x83,
    0xbe, 0xa2, 0x1d, 0x33, 0xbe, 0x01, 0x62, 0xe5, 0xbe, 0x86, 0x7b, 0xe1, 0xbd,
    0x35, 0xba, 0xc4, 0xbd, 0x4d, 0xa1, 0xd9, 0x3e, 0x5f, 0xd3, 0x0e, 0x3d, 0x76,
    0x2f, 0x14, 0x3f, 0x84, 0x4c, 0xdc, 0x3e, 0x60, 0x50, 0x48, 0x3e, 0x1a, 0x4d,
    0x0f, 0x3e, 0xdf, 0x5a, 0x0e, 0x3e, 0xbc, 0x75, 0x9e, 0x3d, 0x79, 0x2b, 0xc3,
    0x3e, 0x5a, 0x27, 0xb8, 0xbe, 0xa6, 0x4c, 0x9e, 0xbd, 0xa2, 0x8f, 0x01, 0xbe,
    0x74, 0x3f, 0x1d, 0x3e, 0x48, 0x68, 0x82, 0x3e, 0xbe, 0x9f, 0x25, 0x3f, 0x71,
    0x8f, 0x48, 0xbe, 0xa4, 0x85, 0x15, 0xbd, 0x9d, 0x37, 0xdc, 0xbd, 0x0c, 0xa8,
    0xb3, 0x3e, 0x00, 0x00, 0x00, 0x00, 0x6a, 0xee, 0xff, 0xff, 0x04, 0x00, 0x00,
    0x00, 0x90, 0x00, 0x00, 0x00, 0xd9, 0xbc, 0x09, 0x3f, 0xb0, 0xb8, 0x97, 0xbc,
    0x15, 0x5a, 0x0d, 0xbf, 0x92, 0x26, 0x13, 0x3e, 0x1e, 0x60, 0x12, 0x3f, 0x5d,
    0x29, 0x3e, 0x3e, 0x28, 0xe4, 0x8a, 0x3d, 0x30, 0xdf, 0x1d, 0x3f, 0x1c, 0x7f,
    0x58, 0x3f, 0x0f, 0x21, 0xd7, 0x3d, 0x6f, 0xb9, 0x41, 0x3e, 0xd7, 0x58, 0x19,
    0x3f, 0x3a, 0x0d, 0x84, 0x3e, 0xe2, 0x6c, 0xa1, 0x3e, 0x93, 0x4e, 0x39, 0x3f,
    0x5f, 0x75, 0xaf, 0x3e, 0x55, 0x1b, 0x0e, 0x3f, 0xd9, 0x97, 0x86, 0x3e, 0xb0,
    0x3b, 0x00, 0x3f, 0xc3, 0xd3, 0x0b, 0x3f, 0x37, 0x37, 0x23, 0x3e, 0x3d, 0x9e,
    0x3e, 0x3f, 0x16, 0x29, 0x0e, 0x3f, 0x1d, 0x2a, 0x66, 0x3f, 0x4e, 0x76, 0xd0,
    0xbd, 0xe8, 0x7a, 0xd8, 0xbe, 0x61, 0x1b, 0x0c, 0x3d, 0xd9, 0x10, 0x54, 0x3f,
    0xc0, 0xfc, 0x7e, 0xbd, 0xfa, 0x8f, 0x71, 0xbf, 0xba, 0x6a, 0x2f, 0x3f, 0xb2,
    0x51, 0xb0, 0x3d, 0x56, 0x9b, 0xf0, 0xbe, 0x7d, 0xe7, 0x60, 0x3e, 0x03, 0xc2,
    0x08, 0x3f, 0xb4, 0x1c, 0x98, 0x3d, 0x00, 0x00, 0x00, 0x00, 0x0a, 0xef, 0xff,
    0xff, 0x04, 0x00, 0x00, 0x00, 0xa0, 0x0f, 0x00, 0x00, 0x17, 0xfa, 0x46, 0x3d,
    0x20, 0x61, 0x6a, 0xbe, 0x9b, 0x51, 0x16, 0x3e, 0xf4, 0xf8, 0x83, 0xbd, 0x7a,
    0x01, 0xeb, 0xbd, 0x0b, 0x2e, 0x2e, 0xbe, 0x92, 0x4a, 0x5e, 0xbe, 0x72, 0x1f,
    0x51, 0xbe, 0x5b, 0xbe, 0xca, 0x3d, 0x95, 0x44, 0x0b, 0x3e, 0xce, 0x09, 0x33,
    0xbe, 0x50, 0xfc, 0x8c, 0xbd, 0x96, 0xc9, 0xb4, 0xb8, 0x89, 0x73, 0xc4, 0xbd,
    0xcc, 0x39, 0x4f, 0x3d, 0x03, 0xa6, 0x1d, 0xbe, 0x22, 0x9d, 0xed, 0x3d, 0x05,
    0x93, 0x8e, 0xbe, 0x38, 0x57, 0x35, 0x3c, 0xc6, 0xc0, 0x00, 0xbe, 0x84, 0x22,
    0x11, 0xbe, 0x96, 0x48, 0xeb, 0xbd, 0xde, 0x1d, 0x3e, 0xbe, 0xbd, 0x05, 0xe2,
    0xbd, 0x7a, 0x4f, 0x35, 0x3e, 0xb8, 0x60, 0x02, 0xbe, 0xbc, 0xd7, 0xfc, 0x3c,
    0x52, 0x7b, 0xe9, 0xbc, 0x1b, 0x7d, 0x8d, 0xbe, 0x11, 0x68, 0x94, 0xbd, 0x92,
    0x12, 0x5b, 0xbe, 0xcd, 0xe2, 0xfe, 0xbc, 0x95, 0x8e, 0xfb, 0x3d, 0x0c, 0x0d,
    0x8e, 0xbd, 0x26, 0xff, 0x43, 0x3e, 0x25, 0x70, 0x3e, 0xbd, 0x96, 0x59, 0xc1,
    0xbe, 0x17, 0xb9, 0x14, 0x3e, 0x35, 0x46, 0xc0, 0x3e, 0x2d, 0xbb, 0x58, 0x3b,
    0xe0, 0x50, 0xcf, 0xbe, 0x3e, 0xd4, 0xea, 0xbe, 0xa1, 0x98, 0x0c, 0xbe, 0xf4,
    0xe7, 0x41, 0x3d, 0xad, 0x49, 0x18, 0xbe, 0x84, 0x40, 0xdc, 0x3c, 0xb7, 0xc8,
    0x86, 0xbe, 0xf4, 0xca, 0x36, 0x3b, 0x1b, 0xbb, 0x3c, 0xbf, 0x32, 0xb2, 0xff,
    0x3e, 0xc3, 0x89, 0x89, 0x3d, 0x13, 0x34, 0x35, 0x3e, 0x02, 0xb0, 0xa6, 0xbe,
    0x1c, 0x95, 0x8a, 0x3d, 0x08, 0x50, 0x8d, 0xbd, 0xa1, 0xec, 0x00, 0xbc, 0x83,
    0x5f, 0x5e, 0xbe, 0x5c, 0x0c, 0xd9, 0x3a, 0xa6, 0x11, 0x07, 0xbe, 0x6e, 0x17,
    0xc1, 0x3e, 0xfb, 0x3f, 0x3d, 0xbf, 0xe1, 0x4c, 0xf5, 0x3e, 0xbc, 0xe7, 0x73,
    0x3e, 0x0c, 0x90, 0x87, 0x3d, 0xcd, 0x56, 0xcf, 0xbe, 0x7e, 0x09, 0x1f, 0x3d,
    0x88, 0x4c, 0x70, 0x3e, 0x5e, 0x6f, 0xf3, 0xbd, 0x8e, 0x6b, 0x02, 0xbe, 0x92,
    0xa0, 0x19, 0xbe, 0x32, 0x97, 0x02, 0x3e, 0x53, 0x2d, 0x51, 0xbe, 0xd1, 0x27,
    0xc6, 0x3d, 0x28, 0x66, 0xdd, 0xbe, 0xb3, 0x59, 0x6c, 0xbd, 0xc7, 0x6a, 0x5c,
    0x3e, 0xeb, 0xd8, 0x17, 0xbe, 0x73, 0xe9, 0x94, 0xbe, 0x8d, 0xca, 0xa8, 0xbd,
    0xcf, 0x6a, 0x3a, 0x3e, 0xbc, 0xbb, 0x4f, 0xbf, 0x2a, 0x76, 0x9d, 0x3e, 0x24,
    0x66, 0xe5, 0x3d, 0x97, 0xe5, 0x25, 0x3d, 0x10, 0xd7, 0x9c, 0xbe, 0xc2, 0xbc,
    0x84, 0xbc, 0xda, 0x85, 0x6f, 0x3e, 0x58, 0x40, 0xdc, 0xbc, 0x81, 0xbd, 0xee,
    0xbd, 0xe7, 0x66, 0xa2, 0xbe, 0xa3, 0xab, 0xb7, 0x3e, 0x65, 0x0c, 0x0d, 0xbe,
    0x1b, 0xcf, 0xd6, 0xbd, 0x88, 0x3a, 0x9e, 0xbe, 0xba, 0xe7, 0x8f, 0xbc, 0xf1,
    0xe4, 0xdb, 0xbd, 0x1a, 0x78, 0x27, 0xbe, 0xa0, 0xd7, 0x01, 0xbd, 0x9b, 0xdd,
    0x64, 0xbe, 0xec, 0xa7, 0x60, 0xbc, 0xda, 0xe8, 0x35, 0xbe, 0x0f, 0x9c, 0x15,
    0x3e, 0xd4, 0x4b, 0x5b, 0x3e, 0xe8, 0x29, 0x11, 0xbe, 0xc6, 0xe0, 0xe3, 0xbc,
    0x15, 0x83, 0x10, 0x3e, 0xf1, 0x8a, 0xf3, 0x3a, 0x4d, 0xe3, 0x09, 0xbe, 0xef,
    0xd1, 0xa5, 0xbe, 0xa1, 0x2c, 0x46, 0x3e, 0x0a, 0x4d, 0x3f, 0xbe, 0x93, 0xcb,
    0xba, 0x3d, 0x04, 0xd3, 0x70, 0xbe, 0x5c, 0xef, 0xad, 0x3e, 0x09, 0x66, 0xbb,
    0x3a, 0x98, 0x52, 0xa5, 0x3e, 0x5f, 0x69, 0x22, 0xbe, 0xf9, 0x8b, 0x44, 0x3c,
    0x4b, 0xc9, 0x1d, 0xbe, 0xff, 0x11, 0x00, 0x3f, 0xaa, 0x57, 0xb4, 0x3e, 0x4f,
    0xe7, 0x99, 0x3e, 0x51, 0x9e, 0xa6, 0x3e, 0x55, 0x9d, 0xf3, 0xbd, 0x34, 0x53,
    0xba, 0xbe, 0x3f, 0x77, 0x97, 0xbd, 0xab, 0xf0, 0x1d, 0xbd, 0x75, 0x8b, 0x18,
    0xbe, 0x81, 0xa7, 0x57, 0x3e, 0x75, 0x11, 0xb8, 0x3e, 0x73, 0xe0, 0x17, 0xbe,
    0x22, 0x8c, 0x21, 0x3d, 0xbe, 0x69, 0x85, 0xbd, 0x56, 0xfc, 0x36, 0x3d, 0x1f,
    0x8d, 0xba, 0x3d, 0x7f, 0x48, 0xfd, 0xbd, 0x88, 0x69, 0x4a, 0xbf, 0xed, 0x1e,
    0xf4, 0xbd, 0x04, 0xe2, 0xbf, 0xbd, 0x58, 0x87, 0x5a, 0x3d, 0x9a, 0x49, 0x0e,
    0x3e, 0xdf, 0x0a, 0xed, 0x3d, 0x1d, 0x99, 0xaa, 0xbd, 0x46, 0xf5, 0x2d, 0x3e,
    0x74, 0x6f, 0x39, 0x3d, 0xcd, 0xea, 0x0d, 0xbf, 0xe9, 0x4c, 0x13, 0xbf, 0x24,
    0xfd, 0xcc, 0x3d, 0xdf, 0x32, 0x4b, 0x3d, 0xb7, 0xcd, 0x0c, 0xbe, 0x86, 0xd9,
    0x77, 0xbe, 0x4f, 0xf3, 0xc0, 0x3e, 0x7b, 0xc5, 0xf0, 0xbe, 0x87, 0x8e, 0x77,
    0x3c, 0x05, 0x1b, 0xd7, 0x3c, 0xcc, 0x01, 0xff, 0x3d, 0xbb, 0x8e, 0xf3, 0xbe,
    0xad, 0xd4, 0x01, 0x3e, 0x8f, 0x5d, 0x84, 0xbb, 0x27, 0x74, 0x11, 0xbe, 0x39,
    0x12, 0xff, 0x3d, 0x7b, 0xf6, 0xef, 0xbd, 0xcb, 0x1a, 0x99, 0xbb, 0x00, 0x46,
    0x2b, 0xbe, 0x54, 0x34, 0x4c, 0x3e, 0x07, 0xfc, 0x25, 0x3e, 0xfc, 0x97, 0x59,
    0xbe, 0xc2, 0xdb, 0x46, 0xbe, 0x57, 0x8f, 0xb5, 0xbd, 0x20, 0x9d, 0xb7, 0x3d,
    0x3a, 0xf1, 0x9d, 0xbe, 0x41, 0xd1, 0x1d, 0x3d, 0x1c, 0x41, 0x02, 0xbe, 0x8c,
    0x30, 0x56, 0x3e, 0xa8, 0xef, 0x14, 0xbb, 0x8c, 0xb9, 0xc2, 0xbe, 0x7d, 0x79,
    0x95, 0x3e, 0x7a, 0xcd, 0x06, 0xbd, 0xae, 0x04, 0x10, 0x3e, 0x38, 0xaf, 0x51,
    0x3e, 0x12, 0xe9, 0x07, 0x3f, 0xf4, 0xa9, 0x01, 0xbe, 0x66, 0xd2, 0x98, 0xbe,
    0xf7, 0xca, 0x38, 0x3e, 0xcc, 0xea, 0x8b, 0x3a, 0x4a, 0x5d, 0x89, 0x3e, 0x7b,
    0x2c, 0x8f, 0xbe, 0x26, 0x11, 0xe7, 0xbd, 0x97, 0x51, 0x18, 0x3d, 0xf7, 0xed,
    0xba, 0x3e, 0xfe, 0x63, 0xf4, 0xbd, 0x60, 0x26, 0x9a, 0x3c, 0xf6, 0x10, 0x9c,
    0xbe, 0x2d, 0x31, 0x3c, 0x3e, 0x43, 0x0d, 0x95, 0x3e, 0x3e, 0x80, 0x83, 0xbe,
    0x2d, 0x77, 0xac, 0x3e, 0xb6, 0xfc, 0xb7, 0xbe, 0x12, 0x2f, 0x9e, 0x3e, 0x9d,
    0x88, 0x4a, 0xbe, 0xe2, 0xd4, 0x93, 0xbd, 0xc4, 0xc1, 0xaf, 0x3d, 0x19, 0x00,
    0x05, 0x3e, 0x65, 0x7a, 0x80, 0xbc, 0x41, 0xa0, 0x05, 0x3c, 0x94, 0xf4, 0x8b,
    0xbe, 0x67, 0x02, 0x6a, 0x3e, 0x52, 0xd6, 0xf9, 0x3d, 0xaf, 0x01, 0x07, 0xbe,
    0x97, 0x42, 0x4a, 0xbd, 0xf5, 0xab, 0x14, 0x3e, 0x62, 0x03, 0xce, 0xbc, 0xc5,
    0xfe, 0x28, 0xbe, 0x92, 0xf5, 0x8a, 0xbc, 0xaa, 0x12, 0xff, 0x3b, 0xc1, 0xae,
    0x86, 0xbe, 0x5c, 0xb5, 0x48, 0xbe, 0xb7, 0x00, 0x16, 0xbd, 0x16, 0x57, 0x07,
    0x3e, 0x6b, 0x19, 0x12, 0xbf, 0x64, 0x3f, 0x23, 0x3e, 0xf0, 0x48, 0xcd, 0x3d,
    0xea, 0xaf, 0x7d, 0xbd, 0x07, 0x86, 0x8c, 0x3e, 0x15, 0xf9, 0xc4, 0x3e, 0xf9,
    0x9a, 0xb1, 0xbe, 0xa7, 0x45, 0x90, 0xbe, 0x44, 0x0d, 0x86, 0x3d, 0x5d, 0x2b,
    0x09, 0x3e, 0x2a, 0x8a, 0xd6, 0x3d, 0x8e, 0x05, 0x28, 0xbe, 0xa7, 0xfa, 0xda,
    0x3d, 0x3a, 0xdc, 0x45, 0x3e, 0x67, 0x3b, 0x20, 0x3d, 0x14, 0x05, 0x02, 0xbd,
    0x1d, 0x02, 0x2f, 0xbe, 0x49, 0xe3, 0xda, 0xbe, 0x47, 0x32, 0x8d, 0x3e, 0x1a,
    0x08, 0x43, 0xbc, 0xcf, 0x1e, 0x3a, 0xbe, 0x04, 0x0d, 0x40, 0x3f, 0x28, 0x31,
    0xa5, 0xbe, 0x2b, 0x62, 0x99, 0xbe, 0xdb, 0x6b, 0x6d, 0x3c, 0x55, 0xa2, 0xdc,
    0x3e, 0x24, 0x62, 0x1b, 0xbf, 0x7f, 0xfc, 0x11, 0xbf, 0xe7, 0xed, 0xc7, 0xbe,
    0x4c, 0xea, 0x90, 0x3e, 0x3b, 0xec, 0x6d, 0xbc, 0xd3, 0x78, 0x72, 0xbe, 0x46,
    0xfa, 0xa8, 0xbe, 0x61, 0xc1, 0xa8, 0x3d, 0x7f, 0xfa, 0x1a, 0xbe, 0xc2, 0x72,
    0x6b, 0xbd, 0xdc, 0x0f, 0xce, 0x3e, 0x85, 0x32, 0x34, 0xbd, 0x54, 0xd8, 0x22,
    0x3d, 0x91, 0xf2, 0x1e, 0xbe, 0xdd, 0xaa, 0xb1, 0x3e, 0x74, 0x45, 0x46, 0x3e,
    0xa5, 0x05, 0x19, 0xbe, 0xa4, 0x9a, 0x9f, 0x3c, 0x8b, 0x10, 0xa3, 0xbd, 0xa8,
    0x79, 0xca, 0xbc, 0x84, 0x70, 0xed, 0xbe, 0xeb, 0x19, 0xca, 0x3d, 0xf8, 0x0e,
    0xc9, 0xbd, 0xa0, 0x8c, 0x9d, 0xbe, 0x5c, 0x04, 0x9b, 0xbe, 0xd5, 0x26, 0xc5,
    0x3d, 0x2b, 0x04, 0x74, 0x3e, 0x06, 0xf9, 0xe9, 0x3d, 0x8a, 0x3a, 0x77, 0xbd,
    0xcb, 0xd3, 0x9b, 0x3c, 0xdc, 0x8a, 0x48, 0x3e, 0x77, 0xdd, 0x9b, 0x3e, 0x8f,
    0xa6, 0x12, 0xbe, 0x2f, 0x2b, 0x99, 0x3d, 0x5c, 0xca, 0x54, 0x3e, 0x8d, 0x38,
    0x1b, 0xbe, 0x47, 0x26, 0x32, 0x3e, 0xae, 0x81, 0x01, 0x3e, 0x8d, 0xdc, 0x8a,
    0x3e, 0xd0, 0xc4, 0x90, 0xbe, 0x7a, 0xc0, 0x3c, 0x3e, 0x56, 0x5d, 0xdd, 0x3c,
    0xa2, 0x92, 0x86, 0x3e, 0xe9, 0xad, 0x57, 0xbd, 0x1c, 0xcf, 0x22, 0xbe, 0x37,
    0x9e, 0xc6, 0x3c, 0x25, 0xa4, 0xde, 0xbd, 0xbf, 0xf6, 0x9a, 0x3c, 0x25, 0x70,
    0x91, 0xbe, 0x27, 0xee, 0x41, 0x3d, 0xe5, 0x6d, 0x17, 0xbe, 0x61, 0x9b, 0x55,
    0x3f, 0x13, 0x10, 0x98, 0xbe, 0x91, 0xae, 0x22, 0x3e, 0x41, 0xed, 0x99, 0xbe,
    0x9f, 0x25, 0x6a, 0x3e, 0x0b, 0x48, 0x27, 0x3e, 0xe7, 0x0d, 0x17, 0x3e, 0x17,
    0x67, 0x84, 0x3d, 0x35, 0xea, 0x1d, 0x3d, 0xfa, 0xf2, 0x80, 0xbe, 0xf4, 0x3f,
    0x7d, 0x3e, 0xff, 0xd0, 0x2d, 0xbd, 0x43, 0x42, 0x5a, 0xbd, 0x5c, 0x9e, 0xa4,
    0x3d, 0x05, 0x1f, 0x9a, 0x3d, 0xb3, 0xbb, 0x3e, 0xbb, 0x79, 0xb8, 0x8c, 0xbd,
    0x39, 0x5c, 0xac, 0xbd, 0x55, 0x1b, 0x5c, 0x3c, 0x9c, 0x7c, 0xc8, 0xbe, 0x04,
    0x8a, 0xbc, 0xbd, 0x5b, 0x67, 0x33, 0xbd, 0xb4, 0x96, 0x84, 0x3d, 0x9c, 0x8d,
    0x13, 0xbf, 0x4a, 0xca, 0xfc, 0x3d, 0x6e, 0x44, 0xf1, 0x3d, 0x4b, 0xd3, 0x14,
    0x3e, 0xfb, 0xf3, 0x4c, 0x3d, 0x97, 0x59, 0x2b, 0x3e, 0x6c, 0xc8, 0x62, 0xbf,
    0x84, 0x93, 0x81, 0xbe, 0x40, 0x45, 0x17, 0xbd, 0xa7, 0xe7, 0x83, 0x3e, 0x16,
    0x1a, 0x1b, 0xbf, 0x97, 0x9e, 0x82, 0xbe, 0x72, 0xc9, 0x6d, 0xbe, 0x78, 0x03,
    0x94, 0xbd, 0x04, 0x3c, 0xa5, 0xbe, 0xcc, 0x30, 0x82, 0xbc, 0xe5, 0xe2, 0x5b,
    0xbe, 0x82, 0xfd, 0xa3, 0xbe, 0x30, 0x39, 0x22, 0x3e, 0xb5, 0x55, 0x7d, 0x3c,
    0xd8, 0x57, 0x97, 0x3e, 0x25, 0x6b, 0xc2, 0x3d, 0xdf, 0x28, 0x74, 0x3e, 0xf5,
    0x84, 0x48, 0xbd, 0x83, 0xae, 0x98, 0xbd, 0xac, 0xaf, 0x37, 0xbb, 0xbe, 0x71,
    0xba, 0xbe, 0xaa, 0x2c, 0x5d, 0xbe, 0xce, 0xa4, 0x45, 0x3e, 0x9e, 0x66, 0xe1,
    0x3d, 0x4a, 0x6e, 0x13, 0xbf, 0xcf, 0x9b, 0x82, 0xbd, 0x75, 0x4c, 0x95, 0x3e,
    0x30, 0xa0, 0x0c, 0x3e, 0x75, 0x48, 0x4c, 0xbe, 0x9f, 0xf0, 0x4c, 0x3e, 0xbc,
    0x8c, 0xbd, 0xbd, 0x0b, 0x06, 0x1a, 0xbd, 0xeb, 0xf5, 0x3a, 0x3e, 0x7e, 0x65,
    0xc6, 0x3c, 0x38, 0xe4, 0x75, 0xbe, 0x34, 0xd4, 0x06, 0x3e, 0xa9, 0xae, 0x70,
    0x3e, 0x51, 0x8d, 0x76, 0x3e, 0x02, 0x5e, 0x44, 0xbe, 0x73, 0xac, 0x28, 0x3e,
    0x33, 0x79, 0x22, 0x3d, 0x10, 0x2b, 0x0e, 0x3c, 0xcf, 0xe3, 0xb7, 0x3d, 0x15,
    0xae, 0x2f, 0x3e, 0x03, 0xb5, 0xed, 0xbd, 0xe3, 0x30, 0x58, 0x3d, 0x08, 0xea,
    0xa5, 0xbc, 0xe1, 0x44, 0x7a, 0x3e, 0x08, 0x3e, 0x87, 0x3e, 0x01, 0xfc, 0x17,
    0x3d, 0x79, 0x34, 0xb8, 0xbe, 0x3c, 0xbd, 0xa0, 0xbe, 0x25, 0x44, 0x32, 0xbd,
    0x60, 0x06, 0xb9, 0xbd, 0x8a, 0xe1, 0xbe, 0xbe, 0x6b, 0x39, 0x79, 0x3e, 0x3c,
    0x60, 0xb0, 0x3e, 0x16, 0x51, 0x8b, 0xbd, 0x64, 0xf1, 0xa9, 0xbe, 0x20, 0x4c,
    0x7f, 0x3e, 0x52, 0x26, 0xc6, 0xbe, 0x98, 0x74, 0x29, 0x3e, 0x57, 0x52, 0x9d,
    0xbe, 0x1b, 0xe1, 0x9e, 0x3e, 0x06, 0x51, 0x10, 0xbf, 0x98, 0xdb, 0xae, 0xbd,
    0xd3, 0x8e, 0xfa, 0xbc, 0x31, 0xf9, 0x83, 0x3e, 0x24, 0x03, 0x8f, 0xbe, 0xe3,
    0x55, 0x3e, 0xbd, 0x99, 0xc5, 0x71, 0x3e, 0x4d, 0x56, 0x9f, 0xbe, 0xd5, 0xae,
    0x32, 0x3d, 0x6b, 0x83, 0x97, 0x3d, 0xe5, 0xcd, 0x4b, 0x3d, 0x80, 0xc8, 0x91,
    0xbe, 0x02, 0x3d, 0x65, 0x3d, 0xc9, 0x75, 0x8c, 0xbd, 0xe3, 0x0b, 0xce, 0xbd,
    0x6e, 0xdd, 0x05, 0xbe, 0xd6, 0x0e, 0x91, 0x3e, 0x72, 0x35, 0xab, 0x3d, 0xa7,
    0x1f, 0xbe, 0xbe, 0x99, 0xf5, 0xae, 0xbe, 0xb8, 0xd0, 0x19, 0x3e, 0xf1, 0x70,
    0xa9, 0xbd, 0xcc, 0xb0, 0x06, 0x3e, 0x04, 0x7e, 0x88, 0xbe, 0x19, 0x28, 0x0a,
    0x3e, 0x56, 0xad, 0x11, 0xbe, 0xce, 0x44, 0xa1, 0x3e, 0x05, 0xbc, 0xe2, 0x3d,
    0xbd, 0x6d, 0x06, 0xbe, 0x36, 0x7c, 0xf0, 0xbe, 0x1c, 0xff, 0xc7, 0x3e, 0x3b,
    0xcf, 0x02, 0xbd, 0xb6, 0xb0, 0x42, 0x3e, 0x03, 0xa8, 0x40, 0x3d, 0x59, 0xed,
    0x99, 0xbe, 0xae, 0x0b, 0x01, 0xbd, 0xa8, 0xb4, 0xdd, 0x3e, 0x21, 0x23, 0x20,
    0x3e, 0x87, 0x11, 0x0f, 0xbe, 0xcd, 0x65, 0xc7, 0xbe, 0x6d, 0xd9, 0x80, 0x3e,
    0x28, 0x88, 0x3d, 0x3e, 0xe3, 0x17, 0x1d, 0x3d, 0xbd, 0x9a, 0xeb, 0xbe, 0x34,
    0x9c, 0x6f, 0x3d, 0xf1, 0x85, 0xd4, 0x3c, 0x7b, 0x4b, 0xfa, 0x3e, 0x46, 0x7f,
    0xa7, 0xbe, 0x54, 0xb3, 0x09, 0x3d, 0xa1, 0x85, 0xd8, 0xbd, 0x10, 0xbd, 0x0e,
    0x3f, 0x0f, 0xef, 0xc0, 0x3d, 0xd4, 0x00, 0x46, 0xbe, 0x1f, 0xd6, 0xb3, 0x3d,
    0x0f, 0x9a, 0x61, 0xbd, 0xae, 0x01, 0x1d, 0xbd, 0x7c, 0xb1, 0x15, 0x3e, 0xdf,
    0x42, 0x1c, 0x3e, 0xc5, 0xbe, 0x0b, 0x3e, 0x97, 0xb4, 0xfb, 0xbe, 0xd1, 0x4d,
    0x15, 0x3e, 0xa5, 0xe6, 0xd2, 0x3e, 0xb1, 0x39, 0x5c, 0xbe, 0xcb, 0x71, 0x92,
    0xbe, 0xc4, 0xde, 0xb0, 0xbc, 0xd1, 0x46, 0xdb, 0x3d, 0x24, 0xbd, 0x86, 0x3e,
    0xf3, 0x32, 0x50, 0xbe, 0xf2, 0xca, 0xf8, 0x3c, 0x56, 0xa2, 0xc1, 0x3d, 0x0e,
    0xb1, 0x4d, 0x3d, 0x80, 0x09, 0x41, 0xbe, 0xe3, 0x72, 0x1d, 0xbf, 0x2f, 0x3f,
    0x73, 0xbe, 0x9a, 0x8f, 0xdd, 0x3e, 0x6e, 0xdd, 0x13, 0x3e, 0x62, 0x66, 0xcb,
    0x3c, 0x9c, 0x27, 0x34, 0xbd, 0xb6, 0xfd, 0xba, 0x3b, 0xde, 0xc0, 0x4d, 0x3e,
    0x64, 0x41, 0xeb, 0xbe, 0xfa, 0xa7, 0x0d, 0xbe, 0x06, 0x76, 0x7e, 0xbe, 0xac,
    0x5c, 0xaf, 0xbd, 0x3c, 0x31, 0xb5, 0xbe, 0x6c, 0xa0, 0x30, 0xbe, 0x69, 0x5d,
    0xac, 0x3d, 0xc7, 0xaf, 0xe0, 0x3c, 0x1a, 0xe1, 0x03, 0xbc, 0xc0, 0x5d, 0x9e,
    0xbd, 0x04, 0x0c, 0x5c, 0x3c, 0xc7, 0x53, 0x3b, 0x3e, 0x82, 0x74, 0x4e, 0xbd,
    0xf7, 0x3a, 0xc2, 0xbe, 0x8f, 0xc7, 0xd1, 0xbd, 0x85, 0xa2, 0xf9, 0xbb, 0xc3,
    0x06, 0xe0, 0xbd, 0x63, 0x0a, 0xf4, 0xbe, 0x5d, 0xb4, 0x0b, 0xbe, 0xe7, 0xd1,
    0x25, 0xbf, 0x3c, 0xb6, 0xb7, 0x3e, 0x4b, 0x2c, 0xf6, 0xbe, 0x95, 0xe9, 0x8d,
    0x3e, 0x19, 0xc7, 0x65, 0xbf, 0xa1, 0x7d, 0x40, 0x3e, 0x2d, 0x00, 0xbf, 0x3d,
    0xfc, 0x39, 0x2d, 0x3c, 0x8d, 0x71, 0x76, 0xbd, 0x1f, 0x7c, 0xcb, 0xbd, 0x6a,
    0x55, 0x34, 0x3d, 0xc9, 0x58, 0xac, 0xbd, 0x04, 0xb2, 0xfd, 0xbd, 0x79, 0xf9,
    0xa3, 0xbb, 0x3f, 0x0b, 0x10, 0xbe, 0x88, 0xee, 0x95, 0xbe, 0xe7, 0x84, 0xac,
    0x3c, 0xd6, 0xc6, 0x88, 0xbd, 0xe1, 0xf6, 0x34, 0xbe, 0x78, 0x39, 0x2e, 0xbe,
    0x79, 0x04, 0x95, 0x3c, 0xcf, 0x77, 0x6b, 0xbe, 0x3e, 0x3e, 0x69, 0xbe, 0xc6,
    0x68, 0x4c, 0xbe, 0x9b, 0xbd, 0x7e, 0x3e, 0x12, 0x7d, 0x07, 0xbf, 0x7f, 0x0d,
    0x83, 0x3d, 0x20, 0x05, 0xbd, 0x3c, 0x06, 0x0c, 0x86, 0x3e, 0x81, 0xda, 0x54,
    0xbe, 0x14, 0x99, 0x7c, 0x3c, 0x64, 0x19, 0x94, 0x3c, 0xba, 0x9a, 0x58, 0xbe,
    0xe3, 0xc7, 0x61, 0x3e, 0xf7, 0x5f, 0x36, 0xbe, 0xa1, 0x52, 0xac, 0x3d, 0x23,
    0xc0, 0x12, 0xbe, 0xec, 0xd5, 0x74, 0x3e, 0xed, 0xe9, 0x14, 0x3e, 0x8c, 0x79,
    0xc2, 0x3d, 0xc6, 0xca, 0x6d, 0xbe, 0x5f, 0x11, 0xa6, 0xbd, 0x5b, 0xf8, 0x18,
    0x3e, 0xea, 0x13, 0x2d, 0xbd, 0xf6, 0xb1, 0x66, 0x3d, 0xbc, 0xd1, 0xd2, 0xbe,
    0x3c, 0xbe, 0xea, 0xbd, 0xdc, 0x16, 0x88, 0xbe, 0xb9, 0x8a, 0x26, 0x3f, 0x73,
    0x94, 0xfd, 0xbe, 0x79, 0xf7, 0xcf, 0xbd, 0xd4, 0xd0, 0x8b, 0xbe, 0xac, 0x35,
    0x30, 0xbe, 0x0d, 0xaa, 0x90, 0x3c, 0xf2, 0xb1, 0x76, 0x3e, 0xa6, 0xd5, 0xd3,
    0x3d, 0x78, 0x3a, 0x5f, 0xbe, 0xc2, 0x63, 0x1d, 0x3d, 0x54, 0xc3, 0x18, 0x3d,
    0x0b, 0xca, 0xcf, 0x3d, 0x23, 0x52, 0x02, 0x3d, 0x20, 0x33, 0x52, 0x3e, 0x85,
    0xa1, 0x3c, 0x3d, 0xf8, 0x60, 0x58, 0xbe, 0xdd, 0xc9, 0x0e, 0x3e, 0xb8, 0x1b,
    0x03, 0xbd, 0xd7, 0xdb, 0x77, 0x3e, 0xfb, 0x4f, 0x36, 0xbf, 0xcd, 0x3c, 0x47,
    0x3e, 0xa2, 0x2c, 0xd7, 0x3d, 0x80, 0xd1, 0xb5, 0xbd, 0xb4, 0x07, 0x85, 0xbf,
    0xf2, 0x26, 0x02, 0x3e, 0xb3, 0x9f, 0x88, 0x3e, 0x63, 0x49, 0x24, 0x3e, 0x39,
    0x44, 0x07, 0x3d, 0x33, 0xcb, 0xbe, 0x3e, 0x11, 0xbf, 0x80, 0xbe, 0x60, 0x9f,
    0x27, 0xbd, 0x23, 0xdb, 0xee, 0xb9, 0xf9, 0xa7, 0x23, 0x3e, 0x0c, 0x9a, 0xa6,
    0x3e, 0x9d, 0x73, 0xa2, 0xbd, 0x9b, 0x9e, 0x2b, 0xbe, 0xfe, 0x35, 0x24, 0x3e,
    0x54, 0x74, 0x8a, 0x3e, 0x56, 0x8e, 0xcd, 0xbd, 0x8d, 0x79, 0x10, 0xbe, 0x15,
    0x7a, 0x88, 0xbe, 0x13, 0x33, 0xa4, 0xbd, 0xa2, 0x32, 0x2a, 0xbd, 0x2e, 0xc9,
    0x57, 0xbe, 0xc7, 0x1c, 0x49, 0x3d, 0x17, 0xfb, 0x85, 0x3d, 0xef, 0x0b, 0x7d,
    0xbe, 0x39, 0x65, 0xec, 0xbd, 0xfc, 0xe3, 0xf6, 0x3e, 0x87, 0x10, 0xdb, 0xbe,
    0x78, 0x85, 0xf0, 0x3d, 0x20, 0x6c, 0x5f, 0xbe, 0xad, 0xde, 0x84, 0x3e, 0x6a,
    0xe2, 0xda, 0xbe, 0xe5, 0x55, 0x89, 0x3d, 0xc2, 0x8f, 0xc4, 0x3c, 0x9d, 0x03,
    0xbb, 0x3c, 0x31, 0xe0, 0x45, 0xbe, 0xec, 0x9c, 0xad, 0x3d, 0x0f, 0xf6, 0x94,
    0xbd, 0x99, 0x7b, 0x96, 0xbe, 0x27, 0x6d, 0x7f, 0x3d, 0xeb, 0x97, 0x14, 0x3e,
    0x5d, 0x86, 0x37, 0x3d, 0x4e, 0xd2, 0x0b, 0xbd, 0x9e, 0x6d, 0x93, 0x3d, 0x55,
    0xad, 0xeb, 0xbd, 0xa1, 0xb9, 0xb8, 0x3e, 0x08, 0x58, 0xc4, 0xbe, 0x71, 0xce,
    0x44, 0x3e, 0x3f, 0x80, 0x77, 0xbe, 0x8f, 0x2f, 0x89, 0x3e, 0xf6, 0xef, 0xac,
    0xbe, 0xbc, 0x70, 0xb6, 0xbc, 0x71, 0x66, 0xbd, 0xbe, 0x05, 0x24, 0xc5, 0x3e,
    0x08, 0x83, 0x15, 0xbe, 0xe0, 0x3b, 0x72, 0xbe, 0x39, 0x79, 0x7e, 0xbe, 0x16,
    0x29, 0xe5, 0x3e, 0x45, 0xda, 0x82, 0x3d, 0x81, 0x68, 0xb3, 0xbd, 0x5b, 0xa3,
    0xb5, 0xbd, 0x83, 0x0f, 0x1d, 0x3f, 0xdc, 0x30, 0x90, 0xbd, 0x11, 0x84, 0x4d,
    0xbd, 0x8a, 0x21, 0x1a, 0xbe, 0xa9, 0x08, 0x03, 0xbe, 0xf7, 0x76, 0x03, 0xbe,
    0x99, 0x21, 0xf1, 0x3d, 0xa5, 0xf3, 0x78, 0x3b, 0xd7, 0xec, 0xe8, 0x3d, 0x8a,
    0x76, 0x03, 0xbf, 0x11, 0xc7, 0x9b, 0x3c, 0xd9, 0x3a, 0x8c, 0xbe, 0x17, 0x9c,
    0x37, 0x3e, 0xd7, 0x13, 0x35, 0x3e, 0x5c, 0x00, 0x15, 0xbe, 0xb0, 0xc2, 0xa7,
    0xbe, 0x37, 0xa6, 0x21, 0xbd, 0x49, 0x38, 0x1c, 0x3f, 0xfc, 0x08, 0xcb, 0xbd,
    0x37, 0x5b, 0xbf, 0xbd, 0x8f, 0x51, 0x6b, 0xbd, 0xab, 0xab, 0x91, 0xbe, 0x1d,
    0xa4, 0x75, 0x3e, 0xf8, 0x9f, 0x21, 0xbe, 0x5c, 0x26, 0x0f, 0xbe, 0xb0, 0x34,
    0xb6, 0xbe, 0x79, 0x9a, 0x0d, 0x3e, 0x11, 0xc3, 0x8d, 0xbd, 0xec, 0x51, 0xf3,
    0x3d, 0x9e, 0x33, 0x8a, 0xbe, 0x5f, 0xef, 0x18, 0x3d, 0xb8, 0x21, 0x99, 0x3d,
    0x5a, 0x0a, 0x8d, 0xbc, 0x39, 0xf0, 0xa8, 0x3e, 0xe2, 0xa9, 0x02, 0xbc, 0x57,
    0xb1, 0x01, 0x3e, 0xfc, 0x27, 0xc0, 0xbe, 0x5d, 0xf9, 0x05, 0x3e, 0x82, 0x53,
    0x31, 0xbe, 0xc3, 0xcf, 0xb2, 0x3d, 0x48, 0x24, 0xb0, 0xbe, 0x72, 0x07, 0x27,
    0xbf, 0x4f, 0xc4, 0x96, 0xbd, 0x00, 0x1c, 0x76, 0x3e, 0x08, 0x35, 0x07, 0x3e,
    0x9b, 0x8e, 0x18, 0xbf, 0x15, 0x58, 0xb3, 0x3e, 0xca, 0x9a, 0x20, 0x3e, 0xf3,
    0x63, 0x16, 0xbd, 0x8b, 0x6e, 0xbd, 0xbe, 0x7a, 0x39, 0x83, 0xbd, 0x9e, 0x9f,
    0xc2, 0x3e, 0x90, 0x52, 0x66, 0x3b, 0xe5, 0x89, 0x0a, 0xbe, 0xa6, 0x80, 0x1f,
    0xbe, 0x0a, 0xd6, 0x15, 0x3e, 0x4a, 0x24, 0xf5, 0xbb, 0xe8, 0x58, 0x08, 0xbe,
    0x59, 0x65, 0x77, 0xbe, 0xdb, 0x7c, 0x3e, 0x3d, 0x41, 0x5e, 0x97, 0x3e, 0xb6,
    0x36, 0x8c, 0xbf, 0x5a, 0x2d, 0x8a, 0xbe, 0x08, 0x72, 0xbf, 0xbe, 0xc3, 0x31,
    0x0e, 0x3e, 0x65, 0x80, 0x27, 0xbf, 0x81, 0x89, 0xa3, 0xbd, 0xeb, 0x13, 0x13,
    0x3e, 0x5f, 0xf7, 0xbe, 0x3e, 0x4e, 0x02, 0x3b, 0xbe, 0x6d, 0x92, 0x9f, 0xbe,
    0x2e, 0x6b, 0x8c, 0x3e, 0x53, 0xc2, 0xf5, 0xbd, 0xe3, 0xac, 0x09, 0x3c, 0x59,
    0x0e, 0xfa, 0xbe, 0xfc, 0xd2, 0x33, 0x3e, 0x3b, 0x19, 0x64, 0xbe, 0xa8, 0xff,
    0xad, 0xbe, 0x12, 0xc4, 0x30, 0x3e, 0xf4, 0x1c, 0xc2, 0xbd, 0xc5, 0xd5, 0x92,
    0xbe, 0x1b, 0x08, 0xce, 0xbd, 0xf1, 0x35, 0x3e, 0x3e, 0x61, 0x4c, 0x87, 0x3c,
    0x5f, 0xaf, 0x66, 0xbd, 0xc5, 0x09, 0x99, 0x3e, 0x4f, 0x84, 0x89, 0x3e, 0x90,
    0xe5, 0xc8, 0x3e, 0xbc, 0xa2, 0x64, 0xbe, 0x4c, 0xe3, 0x26, 0x3e, 0xbc, 0x46,
    0x63, 0xbd, 0x4a, 0xa7, 0x5f, 0xbd, 0x5c, 0xe1, 0xa3, 0xbe, 0x5a, 0x2c, 0x1b,
    0x3e, 0x2a, 0x20, 0x31, 0x3e, 0x0f, 0x67, 0xe7, 0x3d, 0x44, 0x48, 0x18, 0xbf,
    0x92, 0x82, 0x15, 0x3e, 0x48, 0x5d, 0x3e, 0x3e, 0x22, 0xde, 0x54, 0xbe, 0xf2,
    0xf1, 0x6d, 0xbe, 0xcd, 0x11, 0x21, 0x3d, 0x24, 0x3b, 0xbe, 0x3e, 0x0a, 0xf6,
    0xc4, 0x3e, 0x53, 0xf8, 0x19, 0xbe, 0xcf, 0xcc, 0x89, 0x3e, 0x14, 0x8d, 0xb0,
    0xbd, 0x5c, 0xc8, 0x6a, 0x3e, 0x3d, 0x13, 0xd0, 0x3d, 0x76, 0x16, 0x00, 0x3e,
    0xed, 0x1a, 0x91, 0xbe, 0x09, 0x7c, 0x6b, 0x3d, 0xbb, 0x8d, 0x3a, 0xbe, 0x0c,
    0x70, 0x39, 0xbd, 0x68, 0x8e, 0x8e, 0xbe, 0xb2, 0x7f, 0x10, 0x3e, 0x6a, 0xd5,
    0x4d, 0xbd, 0x4a, 0xd2, 0xc4, 0xbe, 0x9e, 0x98, 0x38, 0xbe, 0xb0, 0x1b, 0xf5,
    0x3d, 0x25, 0xc8, 0x81, 0x3e, 0xb6, 0xdd, 0x1a, 0x3d, 0xed, 0x4d, 0xbe, 0x3d,
    0x1d, 0xbc, 0x35, 0xbe, 0x04, 0x5b, 0x83, 0xbd, 0x53, 0x5b, 0xe8, 0x3e, 0x94,
    0x90, 0xf9, 0xbe, 0xa2, 0xf8, 0xb9, 0xbe, 0x20, 0xab, 0x12, 0xbe, 0x50, 0xc7,
    0x1b, 0x3e, 0x6c, 0x00, 0xbd, 0x3e, 0xbd, 0x04, 0x07, 0xbf, 0x22, 0x02, 0xc6,
    0x3d, 0x5a, 0xeb, 0x1c, 0xbe, 0x71, 0xe6, 0x11, 0x3d, 0x6d, 0xd2, 0x67, 0xbe,
    0x85, 0xd9, 0xa4, 0x3e, 0x10, 0x3b, 0xd6, 0x3d, 0x88, 0x78, 0x02, 0x3d, 0x67,
    0xb0, 0x25, 0xbe, 0xb8, 0xef, 0xdc, 0x3c, 0x77, 0x69, 0xe7, 0x3d, 0x90, 0xec,
    0xaf, 0xba, 0x3b, 0x3d, 0x17, 0xbf, 0xba, 0xde, 0x7a, 0x3d, 0xf6, 0xb8, 0x86,
    0x3e, 0x3a, 0x18, 0x00, 0x3f, 0x91, 0x43, 0x28, 0xbe, 0x30, 0x9d, 0x94, 0xbd,
    0x20, 0xd3, 0x22, 0x3b, 0x4d, 0x80, 0x0b, 0x3d, 0x02, 0xbb, 0x8f, 0xbe, 0x77,
    0x7e, 0xdc, 0x3d, 0x29, 0x57, 0x32, 0xbe, 0xf3, 0x17, 0xd2, 0xbe, 0x79, 0x2c,
    0x22, 0xbe, 0x15, 0x77, 0xb4, 0x3e, 0x4f, 0xdf, 0x74, 0x3d, 0x30, 0x99, 0xa1,
    0xbc, 0x86, 0xc0, 0x58, 0xbd, 0x17, 0xcc, 0x2e, 0x3e, 0x42, 0xeb, 0xd3, 0x3e,
    0x2d, 0xa8, 0xf1, 0x3d, 0x30, 0xd7, 0x61, 0xbe, 0xce, 0x6d, 0x27, 0xbe, 0x7f,
    0xc7, 0x25, 0xbe, 0x06, 0xb9, 0x17, 0x3f, 0xb9, 0xf8, 0x12, 0xbf, 0xc0, 0x2e,
    0x53, 0xbe, 0x3f, 0xe5, 0xbd, 0xbe, 0x91, 0x36, 0x01, 0x3f, 0x80, 0xf4, 0xd2,
    0xbe, 0xca, 0xec, 0xb3, 0x3e, 0x77, 0x96, 0x1d, 0xbe, 0x8f, 0x3e, 0x93, 0x3e,
    0xd8, 0x73, 0xe5, 0x3d, 0x8b, 0xb4, 0x91, 0xbd, 0xe8, 0xe0, 0x4d, 0xbf, 0xcb,
    0x0c, 0xdd, 0x3d, 0xdd, 0x8b, 0x62, 0xbe, 0x22, 0x79, 0x90, 0xbe, 0x64, 0xe7,
    0xa6, 0xbc, 0xf4, 0xc3, 0x8d, 0xbe, 0x0e, 0xf5, 0x3d, 0xbe, 0x77, 0xab, 0x18,
    0x3d, 0x94, 0x74, 0x71, 0x3d, 0x5b, 0x29, 0x00, 0xbf, 0xd7, 0x68, 0xd1, 0xbd,
    0xab, 0x9b, 0x7d, 0xbc, 0x1d, 0x0e, 0x05, 0xbd, 0xd7, 0xc2, 0x9d, 0xbe, 0x09,
    0xe7, 0x35, 0xbe, 0x18, 0x7c, 0xbb, 0x3d, 0xa7, 0xa9, 0x07, 0xbd, 0x16, 0x3b,
    0x47, 0xbe, 0x45, 0xf7, 0x76, 0xbd, 0xd0, 0x48, 0x87, 0xbe, 0x35, 0xba, 0x5f,
    0x3d, 0x6d, 0x59, 0xcc, 0x3c, 0xa3, 0x98, 0x25, 0x3e, 0xff, 0xdd, 0x2d, 0xbd,
    0x0e, 0xa9, 0x9b, 0x3d, 0x87, 0x69, 0xd0, 0xbe, 0xbf, 0xf0, 0xc1, 0x3d, 0x6d,
    0x59, 0x8a, 0x3d, 0xaf, 0xd1, 0x90, 0xbe, 0xa7, 0x2a, 0x94, 0xbd, 0x6b, 0x1b,
    0x49, 0x3e, 0x7b, 0xc4, 0x17, 0x3d, 0x2e, 0x3b, 0xdc, 0xbc, 0x4f, 0x76, 0xb9,
    0xbe, 0x56, 0xd7, 0xd1, 0x3e, 0xf2, 0xe0, 0xd7, 0xbd, 0x2d, 0xb6, 0x94, 0xbe,
    0x47, 0x47, 0xe7, 0xbd, 0x9e, 0x90, 0xf6, 0x3b, 0xc9, 0x03, 0xd3, 0xbd, 0x1c,
    0xf3, 0xe6, 0x3d, 0xfc, 0x2e, 0x2a, 0xbe, 0x95, 0x49, 0xc1, 0xbc, 0x2b, 0x18,
    0x09, 0xbd, 0x9a, 0x7b, 0xc8, 0xbd, 0x82, 0x05, 0x88, 0xbe, 0x6d, 0x54, 0x3b,
    0x3e, 0xf0, 0xee, 0x5e, 0xbe, 0x71, 0xf6, 0x7c, 0xbe, 0xa3, 0xa9, 0x8c, 0x3d,
    0x65, 0x71, 0x63, 0x3e, 0x8c, 0xcc, 0x17, 0xbd, 0x89, 0xea, 0x9b, 0xbd, 0x7c,
    0xd7, 0x0a, 0x3e, 0x77, 0xd4, 0xd7, 0x3d, 0xc4, 0x5a, 0x5a, 0xbe, 0xdd, 0x93,
    0x28, 0xbe, 0x74, 0x40, 0xad, 0xbe, 0x31, 0x79, 0x36, 0x3e, 0xba, 0x24, 0x7b,
    0x3c, 0x41, 0x94, 0x27, 0xbe, 0x53, 0x7b, 0x4c, 0xbe, 0x04, 0x77, 0xf7, 0xbb,
    0x92, 0x57, 0x57, 0x3e, 0x9a, 0xe6, 0x51, 0x3e, 0xa3, 0xc1, 0xc5, 0xbe, 0x22,
    0xbc, 0xec, 0xbe, 0xb9, 0xf3, 0xa6, 0xbc, 0xe0, 0x7f, 0xdd, 0x3d, 0xf6, 0x8a,
    0x63, 0xbe, 0x39, 0xe5, 0xa2, 0xbe, 0x29, 0xca, 0x49, 0xbd, 0x0c, 0xc8, 0x72,
    0xbe, 0xe9, 0x81, 0x0d, 0xbe, 0xa8, 0xb3, 0xd9, 0x3d, 0x35, 0x62, 0xa3, 0x3e,
    0xb2, 0x14, 0x8d, 0xbc, 0xd6, 0xad, 0x9b, 0x3e, 0x83, 0xb4, 0x6a, 0x3d, 0x36,
    0xbd, 0x88, 0xbe, 0xf7, 0x5d, 0xd0, 0xbd, 0x04, 0x72, 0xfa, 0x3d, 0x9a, 0xf5,
    0xf2, 0xbd, 0x4a, 0x7e, 0xd5, 0xbe, 0x5e, 0xb5, 0xa2, 0xbe, 0xa9, 0xe3, 0x8e,
    0xbe, 0xab, 0xde, 0x55, 0x3e, 0xa7, 0xd8, 0xa3, 0xbd, 0x37, 0xe8, 0xdb, 0xbe,
    0x99, 0x31, 0xc7, 0x3e, 0x96, 0x00, 0xb4, 0x3e, 0x37, 0x0b, 0x2e, 0xbe, 0x1b,
    0x82, 0x8d, 0xbe, 0x50, 0x7e, 0x8d, 0x3d, 0x40, 0x3d, 0x97, 0x3e, 0x73, 0xa8,
    0x90, 0xbe, 0xb3, 0xb6, 0xcc, 0x3d, 0x71, 0x6d, 0x81, 0xbe, 0xb0, 0xb4, 0x23,
    0x3e, 0xe9, 0x8e, 0xc2, 0xbd, 0xcf, 0x5a, 0xa4, 0xbe, 0x0e, 0x33, 0xc7, 0xbd,
    0x42, 0x4f, 0x97, 0x3d, 0xde, 0x7b, 0x24, 0x3d, 0x95, 0x9b, 0x53, 0x3e, 0x2f,
    0xfb, 0xa1, 0xbc, 0xee, 0x5e, 0xad, 0x3c, 0x67, 0xdb, 0x39, 0x3d, 0x4e, 0x16,
    0x59, 0x3e, 0x1d, 0x81, 0x5b, 0xbf, 0x37, 0x6f, 0x82, 0xbe, 0x55, 0x1e, 0xf9,
    0xbd, 0x13, 0xe3, 0x3c, 0x3e, 0x2b, 0xd5, 0xbb, 0xbe, 0xab, 0xc3, 0x93, 0xbe,
    0xeb, 0x4b, 0xb7, 0xbe, 0xb2, 0x61, 0x88, 0x3d, 0x5d, 0xc6, 0xf0, 0xbc, 0x8d,
    0xf4, 0xef, 0x3d, 0x40, 0x67, 0xe3, 0xbe, 0x84, 0xdd, 0x01, 0x3e, 0x7f, 0x3d,
    0xb0, 0xbe, 0x9a, 0xff, 0x78, 0x3d, 0xd5, 0x1a, 0xdd, 0xbe, 0xa6, 0xbf, 0xeb,
    0xbd, 0x63, 0xec, 0x93, 0xbd, 0x48, 0x7a, 0xab, 0xbe, 0x32, 0xa7, 0x0f, 0xbe,
    0xc5, 0x41, 0x42, 0x3c, 0x19, 0xd5, 0xa3, 0xbe, 0x9e, 0x84, 0x92, 0x3d, 0x6d,
    0x4a, 0x4a, 0x3e, 0x3b, 0xa2, 0x94, 0xbc, 0xf7, 0xfc, 0x06, 0xbf, 0xfa, 0x7c,
    0x8a, 0x3e, 0xcd, 0x66, 0x89, 0x3d, 0xe9, 0x39, 0x7f, 0xbe, 0x10, 0xc4, 0x47,
    0xbe, 0x31, 0xf7, 0xa5, 0x3d, 0x79, 0x6d, 0x33, 0xbe, 0xf6, 0xe0, 0x68, 0xbe,
    0xa4, 0x33, 0x36, 0x3e, 0xf1, 0xc9, 0xc1, 0x3d, 0x92, 0xb6, 0x11, 0xbe, 0xe5,
    0x9e, 0x00, 0xbf, 0xdd, 0x0c, 0xe0, 0x3e, 0xac, 0xa3, 0x2f, 0x3e, 0xdf, 0x89,
    0xbf, 0x3d, 0xb4, 0xc7, 0xe4, 0xbe, 0x30, 0x29, 0x28, 0x3e, 0xbd, 0xf4, 0x19,
    0x3f, 0x4b, 0xad, 0xfa, 0x3d, 0xe0, 0x6a, 0x35, 0xbe, 0xdf, 0xd8, 0x93, 0xbe,
    0xce, 0x8f, 0x51, 0x3e, 0xf3, 0x4e, 0x87, 0xbd, 0xda, 0x39, 0xb5, 0xbc, 0xda,
    0x44, 0x07, 0x3e, 0x13, 0xb7, 0xbf, 0xbd, 0x0e, 0x1d, 0x2e, 0x3d, 0xba, 0xb5,
    0x07, 0xbf, 0xc0, 0xe3, 0x0c, 0x3e, 0x76, 0x1c, 0xe7, 0xbd, 0x96, 0xd9, 0x27,
    0x3e, 0x15, 0x03, 0xde, 0xbe, 0xca, 0xce, 0xc8, 0x3e, 0xd7, 0xc7, 0x12, 0xbe,
    0x19, 0x29, 0xd6, 0xbc, 0x5e, 0xed, 0x0c, 0x3e, 0x45, 0x16, 0xce, 0x3d, 0x45,
    0x85, 0x26, 0x3e, 0x70, 0xd1, 0x6a, 0x3d, 0x3f, 0x57, 0x42, 0x3e, 0x4d, 0xe2,
    0xd7, 0xbe, 0x28, 0x34, 0x89, 0xbe, 0x04, 0xde, 0xca, 0xbc, 0x8e, 0x59, 0x1b,
    0xbe, 0x3e, 0x2a, 0xd2, 0xbd, 0x4c, 0x21, 0xb3, 0xbe, 0x0d, 0xde, 0x6e, 0x3d,
    0xf2, 0x07, 0x2e, 0xbf, 0x8e, 0x5a, 0x88, 0x3e, 0xcf, 0x31, 0x19, 0xbe, 0x11,
    0xf5, 0x85, 0xbe, 0x53, 0x1f, 0xc8, 0xbd, 0xc2, 0x51, 0x9e, 0x3e, 0x4c, 0x76,
    0x58, 0xbe, 0x5c, 0xab, 0x05, 0x3c, 0xbb, 0x1b, 0xaa, 0x3e, 0xf8, 0x3f, 0x9e,
    0xbe, 0x53, 0x20, 0x47, 0xbe, 0x2c, 0x00, 0x87, 0xbe, 0x49, 0xdf, 0x97, 0x3d,
    0x07, 0x6f, 0x77, 0x3e, 0x3d, 0xd1, 0x01, 0xbf, 0xef, 0x65, 0x12, 0xbd, 0x95,
    0x5d, 0x8e, 0x3d, 0xed, 0x03, 0x24, 0x3e, 0x4a, 0x93, 0xad, 0xbb, 0xd3, 0x55,
    0x84, 0x3d, 0x6b, 0x3f, 0x4d, 0xbe, 0x8c, 0x49, 0x7a, 0x3c, 0x63, 0xef, 0xbf,
    0xbd, 0xd0, 0x2a, 0xa7, 0xbb, 0x00, 0x00, 0x00, 0x00, 0xba, 0xfe, 0xff, 0xff,
    0x04, 0x00, 0x00, 0x00, 0x08, 0x00, 0x00, 0x00, 0xff, 0xff, 0xff, 0xff, 0x64,
    0x00, 0x00, 0x00, 0x00, 0x00, 0x00, 0x00, 0x00, 0x00, 0x00, 0x00, 0x00, 0x00,
    0x00, 0x00, 0xda, 0xfe, 0xff, 0xff, 0x04, 0x00, 0x00, 0x00, 0x28, 0x00, 0x00,
    0x00, 0x48, 0x9d, 0xfc, 0xbb, 0x73, 0xef, 0x39, 0xbd, 0x94, 0x66, 0xcd, 0x3d,
    0x9e, 0x6a, 0xaa, 0xbc, 0x81, 0x01, 0x0b, 0xbe, 0xf3, 0xe6, 0x6d, 0x3d, 0x05,
    0x03, 0x9d, 0xbd, 0x71, 0x09, 0xd6, 0x3c, 0x5d, 0xf2, 0x30, 0xbe, 0xae, 0x5b,
    0x58, 0x3e, 0x00, 0x00, 0x00, 0x00, 0x00, 0x00, 0x00, 0x00, 0x00, 0x00, 0x00,
    0x00, 0x1a, 0xff, 0xff, 0xff, 0x04, 0x00, 0x00, 0x00, 0x10, 0x00, 0x00, 0x00,
    0xb6, 0x24, 0xfb, 0x3d, 0x73, 0x2b, 0x9e, 0x3e, 0xe1, 0x59, 0xf4, 0xbe, 0x32,
    0x78, 0x98, 0xbd, 0x00, 0x00, 0x00, 0x00, 0x3a, 0xff, 0xff, 0xff, 0x04, 0x00,
    0x00, 0x00, 0x10, 0x00, 0x00, 0x00, 0x2e, 0x4c, 0x6b, 0xba, 0x30, 0x53, 0x75,
    0xba, 0x0d, 0x3d, 0xc2, 0x3a, 0x57, 0x54, 0x81, 0xbe, 0x00, 0x00, 0x00, 0x00,
    0x00, 0x00, 0x00, 0x00, 0x00, 0x00, 0x00, 0x00, 0x10, 0xf7, 0xff, 0xff, 0x00,
    0x00, 0x00, 0x00, 0x00, 0x00, 0x00, 0x00, 0x00, 0x00, 0x00, 0x00, 0x20, 0xf7,
    0xff, 0xff, 0x0f, 0x00, 0x00, 0x00, 0x4d, 0x4c, 0x49, 0x52, 0x20, 0x43, 0x6f,
    0x6e, 0x76, 0x65, 0x72, 0x74, 0x65, 0x64, 0x2e, 0x00, 0x01, 0x00, 0x00, 0x00,
    0x14, 0x00, 0x00, 0x00, 0x00, 0x00, 0x0e, 0x00, 0x18, 0x00, 0x04, 0x00, 0x08,
    0x00, 0x0c, 0x00, 0x10, 0x00, 0x14, 0x00, 0x0e, 0x00, 0x00, 0x00, 0x30, 0x02,
    0x00, 0x00, 0x24, 0x02, 0x00, 0x00, 0x18, 0x02, 0x00, 0x00, 0x14, 0x00, 0x00,
    0x00, 0x04, 0x00, 0x00, 0x00, 0x04, 0x00, 0x00, 0x00, 0x6d, 0x61, 0x69, 0x6e,
    0x00, 0x00, 0x00, 0x00, 0x07, 0x00, 0x00, 0x00, 0xb4, 0x01, 0x00, 0x00, 0x50,
    0x01, 0x00, 0x00, 0x00, 0x01, 0x00, 0x00, 0xbc, 0x00, 0x00, 0x00, 0x84, 0x00,
    0x00, 0x00, 0x40, 0x00, 0x00, 0x00, 0x04, 0x00, 0x00, 0x00, 0xd6, 0xfe, 0xff,
    0xff, 0x00, 0x00, 0x00, 0x09, 0x04, 0x00, 0x00, 0x00, 0x24, 0x00, 0x00, 0x00,
    0x18, 0x00, 0x00, 0x00, 0x0c, 0x00, 0x00, 0x00, 0x00, 0x00, 0x06, 0x00, 0x08,
    0x00, 0x04, 0x00, 0x06, 0x00, 0x00, 0x00, 0x00, 0x00, 0x80, 0x3f, 0x01, 0x00,
    0x00, 0x00, 0x0e, 0x00, 0x00, 0x00, 0x01, 0x00, 0x00, 0x00, 0x0d, 0x00, 0x00,
    0x00, 0x9a, 0xff, 0xff, 0xff, 0x00, 0x00, 0x00, 0x08, 0x03, 0x00, 0x00, 0x00,
    0x18, 0x00, 0x00, 0x00, 0x0c, 0x00, 0x00, 0x00, 0x04, 0x00, 0x00, 0x00, 0xe4,
    0xf7, 0xff, 0xff, 0x01, 0x00, 0x00, 0x00, 0x0d, 0x00, 0x00, 0x00, 0x03, 0x00,
    0x00, 0x00, 0x0c, 0x00, 0x00, 0x00, 0x05, 0x00, 0x00, 0x00, 0x03, 0x00, 0x00,
    0x00, 0x00, 0x00, 0x0a, 0x00, 0x10, 0x00, 0x04, 0x00, 0x08, 0x00, 0x0c, 0x00,
    0x0a, 0x00, 0x00, 0x00, 0x02, 0x00, 0x00, 0x00, 0x10, 0x00, 0x00, 0x00, 0x04,
    0x00, 0x00, 0x00, 0x01, 0x00, 0x00, 0x00, 0x0c, 0x00, 0x00, 0x00, 0x02, 0x00,
    0x00, 0x00, 0x0b, 0x00, 0x00, 0x00, 0x04, 0x00, 0x00, 0x00, 0x00, 0x00, 0x0e,
    0x00, 0x18, 0x00, 0x08, 0x00, 0x0c, 0x00, 0x10, 0x00, 0x07, 0x00, 0x14, 0x00,
    0x0e, 0x00, 0x00, 0x00, 0x00, 0x00, 0x00, 0x05, 0x01, 0x00, 0x00, 0x00, 0x2c,
    0x00, 0x00, 0x00, 0x20, 0x00, 0x00, 0x00, 0x04, 0x00, 0x00, 0x00, 0x72, 0xff,
    0xff, 0xff, 0x00, 0x00, 0x00, 0x01, 0x02, 0x00, 0x00, 0x00, 0x02, 0x00, 0x00,
    0x00, 0x02, 0x00, 0x00, 0x00, 0x02, 0x00, 0x00, 0x00, 0x01, 0x00, 0x00, 0x00,
    0x0b, 0x00, 0x00, 0x00, 0x01, 0x00, 0x00, 0x00, 0x0a, 0x00, 0x00, 0x00, 0x62,
    0xff, 0xff, 0xff, 0x00, 0x00, 0x00, 0x01, 0x24, 0x00, 0x00, 0x00, 0x18, 0x00,
    0x00, 0x00, 0x04, 0x00, 0x00, 0x00, 0x54, 0xff, 0xff, 0xff, 0x00, 0x00, 0x01,
    0x01, 0x01, 0x00, 0x00, 0x00, 0x01, 0x00, 0x00, 0x00, 0x01, 0x00, 0x00, 0x00,
    0x0a, 0x00, 0x00, 0x00, 0x03, 0x00, 0x00, 0x00, 0x09, 0x00, 0x00, 0x00, 0x07,
    0x00, 0x00, 0x00, 0x02, 0x00, 0x00, 0x00, 0x00, 0x00, 0x0e, 0x00, 0x1a, 0x00,
    0x08, 0x00, 0x0c, 0x00, 0x10, 0x00, 0x07, 0x00, 0x14, 0x00, 0x0e, 0x00, 0x00,
    0x00, 0x00, 0x00, 0x00, 0x05, 0x01, 0x00, 0x00, 0x00, 0x3c, 0x00, 0x00, 0x00,
    0x30, 0x00, 0x00, 0x00, 0x14, 0x00, 0x00, 0x00, 0x00, 0x00, 0x0e, 0x00, 0x18,
    0x00, 0x07, 0x00, 0x08, 0x00, 0x0c, 0x00, 0x10, 0x00, 0x14, 0x00, 0x0e, 0x00,
    0x00, 0x00, 0x00, 0x00, 0x00, 0x01, 0x02, 0x00, 0x00, 0x00, 0x02, 0x00, 0x00,
    0x00, 0x02, 0x00, 0x00, 0x00, 0x02, 0x00, 0x00, 0x00, 0x01, 0x00, 0x00, 0x00,
    0x09, 0x00, 0x00, 0x00, 0x01, 0x00, 0x00, 0x00, 0x08, 0x00, 0x00, 0x00, 0x00,
    0x00, 0x0e, 0x00, 0x14, 0x00, 0x00, 0x00, 0x08, 0x00, 0x0c, 0x00, 0x07, 0x00,
    0x10, 0x00, 0x0e, 0x00, 0x00, 0x00, 0x00, 0x00, 0x00, 0x01, 0x30, 0x00, 0x00,
    0x00, 0x24, 0x00, 0x00, 0x00, 0x10, 0x00, 0x00, 0x00, 0x0c, 0x00, 0x10, 0x00,
    0x06, 0x00, 0x08, 0x00, 0x0c, 0x00, 0x07, 0x00, 0x0c, 0x00, 0x00, 0x00, 0x00,
    0x00, 0x01, 0x01, 0x01, 0x00, 0x00, 0x00, 0x01, 0x00, 0x00, 0x00, 0x01, 0x00,
    0x00, 0x00, 0x08, 0x00, 0x00, 0x00, 0x03, 0x00, 0x00, 0x00, 0x00, 0x00, 0x00,
    0x00, 0x06, 0x00, 0x00, 0x00, 0x01, 0x00, 0x00, 0x00, 0x01, 0x00, 0x00, 0x00,
    0x0e, 0x00, 0x00, 0x00, 0x01, 0x00, 0x00, 0x00, 0x00, 0x00, 0x00, 0x00, 0x0f,
    0x00, 0x00, 0x00, 0x4c, 0x06, 0x00, 0x00, 0xd8, 0x05, 0x00, 0x00, 0x68, 0x05,
    0x00, 0x00, 0x08, 0x05, 0x00, 0x00, 0xbc, 0x04, 0x00, 0x00, 0x64, 0x04, 0x00,
    0x00, 0x10, 0x04, 0x00, 0x00, 0xbc, 0x03, 0x00, 0x00, 0xc4, 0x02, 0x00, 0x00,
    0x50, 0x02, 0x00, 0x00, 0x78, 0x01, 0x00, 0x00, 0x04, 0x01, 0x00, 0x00, 0xa8,
    0x00, 0x00, 0x00, 0x4c, 0x00, 0x00, 0x00, 0x04, 0x00, 0x00, 0x00, 0x04, 0xfa,
    0xff, 0xff, 0x34, 0x00, 0x00, 0x00, 0x0f, 0x00, 0x00, 0x00, 0x1c, 0x00, 0x00,
    0x00, 0x14, 0x00, 0x00, 0x00, 0x04, 0x00, 0x00, 0x00, 0x02, 0x00, 0x00, 0x00,
    0xff, 0xff, 0xff, 0xff, 0x0a, 0x00, 0x00, 0x00, 0xe8, 0xf9, 0xff, 0xff, 0x08,
    0x00, 0x00, 0x00, 0x49, 0x64, 0x65, 0x6e, 0x74, 0x69, 0x74, 0x79, 0x00, 0x00,
    0x00, 0x00, 0x02, 0x00, 0x00, 0x00, 0x01, 0x00, 0x00, 0x00, 0x0a, 0x00, 0x00,
    0x00, 0x48, 0xfa, 0xff, 0xff, 0x48, 0x00, 0x00, 0x00, 0x0e, 0x00, 0x00, 0x00,
    0x1c, 0x00, 0x00, 0x00, 0x14, 0x00, 0x00, 0x00, 0x04, 0x00, 0x00, 0x00, 0x02,
    0x00, 0x00, 0x00, 0xff, 0xff, 0xff, 0xff, 0x0a, 0x00, 0x00, 0x00, 0x2c, 0xfa,
    0xff, 0xff, 0x1c, 0x00, 0x00, 0x00, 0x73, 0x65, 0x71, 0x75, 0x65, 0x6e, 0x74,
    0x69, 0x61, 0x6c, 0x5f, 0x34, 0x2f, 0x64, 0x65, 0x6e, 0x73, 0x65, 0x5f, 0x34,
    0x2f, 0x42, 0x69, 0x61, 0x73, 0x41, 0x64, 0x64, 0x00, 0x00, 0x00, 0x00, 0x02,
    0x00, 0x00, 0x00, 0x01, 0x00, 0x00, 0x00, 0x0a, 0x00, 0x00, 0x00, 0xa0, 0xfa,
    0xff, 0xff, 0x48, 0x00, 0x00, 0x00, 0x0d, 0x00, 0x00, 0x00, 0x1c, 0x00, 0x00,
    0x00, 0x14, 0x00, 0x00, 0x00, 0x04, 0x00, 0x00, 0x00, 0x02, 0x00, 0x00, 0x00,
    0xff, 0xff, 0xff, 0xff, 0x64, 0x00, 0x00, 0x00, 0x84, 0xfa, 0xff, 0xff, 0x1e,
    0x00, 0x00, 0x00, 0x73, 0x65, 0x71, 0x75, 0x65, 0x6e, 0x74, 0x69, 0x61, 0x6c,
    0x5f, 0x34, 0x2f, 0x66, 0x6c, 0x61, 0x74, 0x74, 0x65, 0x6e, 0x5f, 0x34, 0x2f,
    0x52, 0x65, 0x73, 0x68, 0x61, 0x70, 0x65, 0x00, 0x00, 0x02, 0x00, 0x00, 0x00,
    0x01, 0x00, 0x00, 0x00, 0x64, 0x00, 0x00, 0x00, 0xf8, 0xfa, 0xff, 0xff, 0x58,
    0x00, 0x00, 0x00, 0x0c, 0x00, 0x00, 0x00, 0x24, 0x00, 0x00, 0x00, 0x1c, 0x00,
    0x00, 0x00, 0x04, 0x00, 0x00, 0x00, 0x04, 0x00, 0x00, 0x00, 0xff, 0xff, 0xff,
    0xff, 0x05, 0x00, 0x00, 0x00, 0x05, 0x00, 0x00, 0x00, 0x04, 0x00, 0x00, 0x00,
    0xe4, 0xfa, 0xff, 0xff, 0x24, 0x00, 0x00, 0x00, 0x73, 0x65, 0x71, 0x75, 0x65,
    0x6e, 0x74, 0x69, 0x61, 0x6c, 0x5f, 0x34, 0x2f, 0x6d, 0x61, 0x78, 0x5f, 0x70,
    0x6f, 0x6f, 0x6c, 0x69, 0x6e, 0x67, 0x32, 0x64, 0x5f, 0x39, 0x2f, 0x4d, 0x61,
    0x78, 0x50, 0x6f, 0x6f, 0x6c, 0x00, 0x00, 0x00, 0x00, 0x04, 0x00, 0x00, 0x00,
    0x01, 0x00, 0x00, 0x00, 0x05, 0x00, 0x00, 0x00, 0x05, 0x00, 0x00, 0x00, 0x04,
    0x00, 0x00, 0x00, 0x68, 0xfb, 0xff, 0xff, 0xbc, 0x00, 0x00, 0x00, 0x0b, 0x00,
    0x00, 0x00, 0x24, 0x00, 0x00, 0x00, 0x1c, 0x00, 0x00, 0x00, 0x04, 0x00, 0x00,
    0x00, 0x04, 0x00, 0x00, 0x00, 0xff, 0xff, 0xff, 0xff, 0x0b, 0x00, 0x00, 0x00,
    0x0b, 0x00, 0x00, 0x00, 0x04, 0x00, 0x00, 0x00, 0x54, 0xfb, 0xff, 0xff, 0x8b,
    0x00, 0x00, 0x00, 0x73, 0x65, 0x71, 0x75, 0x65, 0x6e, 0x74, 0x69, 0x61, 0x6c,
    0x5f, 0x34, 0x2f, 0x63, 0x6f, 0x6e, 0x76, 0x32, 0x64, 0x5f, 0x39, 0x2f, 0x52,
    0x65, 0x6c, 0x75, 0x3b, 0x73, 0x65, 0x71, 0x75, 0x65, 0x6e, 0x74, 0x69, 0x61,
    0x6c, 0x5f, 0x34, 0x2f, 0x63, 0x6f, 0x6e, 0x76, 0x32, 0x64, 0x5f, 0x39, 0x2f,
    0x42, 0x69, 0x61, 0x73, 0x41, 0x64, 0x64, 0x3b, 0x73, 0x65, 0x71, 0x75, 0x65,
    0x6e, 0x74, 0x69, 0x61, 0x6c, 0x5f, 0x34, 0x2f, 0x63, 0x6f, 0x6e, 0x76, 0x32,
    0x64, 0x5f, 0x39, 0x2f, 0x43, 0x6f, 0x6e, 0x76, 0x32, 0x44, 0x3b, 0x73, 0x65,
    0x71, 0x75, 0x65, 0x6e, 0x74, 0x69, 0x61, 0x6c, 0x5f, 0x34, 0x2f, 0x63, 0x6f,
    0x6e, 0x76, 0x32, 0x64, 0x5f, 0x39, 0x2f, 0x42, 0x69, 0x61, 0x73, 0x41, 0x64,
    0x64, 0x2f, 0x52, 0x65, 0x61, 0x64, 0x56, 0x61, 0x72, 0x69, 0x61, 0x62, 0x6c,
    0x65, 0x4f, 0x70, 0x2f, 0x72, 0x65, 0x73, 0x6f, 0x75, 0x72, 0x63, 0x65, 0x00,
    0x04, 0x00, 0x00, 0x00, 0x01, 0x00, 0x00, 0x00, 0x0b, 0x00, 0x00, 0x00, 0x0b,
    0x00, 0x00, 0x00, 0x04, 0x00, 0x00, 0x00, 0x3c, 0xfc, 0xff, 0xff, 0x58, 0x00,
    0x00, 0x00, 0x0a, 0x00, 0x00, 0x00, 0x24, 0x00, 0x00, 0x00, 0x1c, 0x00, 0x00,
    0x00, 0x04, 0x00, 0x00, 0x00, 0x04, 0x00, 0x00, 0x00, 0xff, 0xff, 0xff, 0xff,
    0x0d, 0x00, 0x00, 0x00, 0x0d, 0x00, 0x00, 0x00, 0x04, 0x00, 0x00, 0x00, 0x28,
    0xfc, 0xff, 0xff, 0x24, 0x00, 0x00, 0x00, 0x73, 0x65, 0x71, 0x75, 0x65, 0x6e,
    0x74, 0x69, 0x61, 0x6c, 0x5f, 0x34, 0x2f, 0x6d, 0x61, 0x78, 0x5f, 0x70, 0x6f,
    0x6f, 0x6c, 0x69, 0x6e, 0x67, 0x32, 0x64, 0x5f, 0x38, 0x2f, 0x4d, 0x61, 0x78,
    0x50, 0x6f, 0x6f, 0x6c, 0x00, 0x00, 0x00, 0x00, 0x04, 0x00, 0x00, 0x00, 0x01,
    0x00, 0x00, 0x00, 0x0d, 0x00, 0x00, 0x00, 0x0d, 0x00, 0x00, 0x00, 0x04, 0x00,
    0x00, 0x00, 0xac, 0xfc, 0xff, 0xff, 0xdc, 0x00, 0x00, 0x00, 0x09, 0x00, 0x00,
    0x00, 0x24, 0x00, 0x00, 0x00, 0x1c, 0x00, 0x00, 0x00, 0x04, 0x00, 0x00, 0x00,
    0x04, 0x00, 0x00, 0x00, 0xff, 0xff, 0xff, 0xff, 0x1a, 0x00, 0x00, 0x00, 0x1a,
    0x00, 0x00, 0x00, 0x04, 0x00, 0x00, 0x00, 0x98, 0xfc, 0xff, 0xff, 0xa8, 0x00,
    0x00, 0x00, 0x73, 0x65, 0x71, 0x75, 0x65, 0x6e, 0x74, 0x69, 0x61, 0x6c, 0x5f,
    0x34, 0x2f, 0x63, 0x6f, 0x6e, 0x76, 0x32, 0x64, 0x5f, 0x38, 0x2f, 0x52, 0x65,
    0x6c, 0x75, 0x3b, 0x73, 0x65, 0x71, 0x75, 0x65, 0x6e, 0x74, 0x69, 0x61, 0x6c,
    0x5f, 0x34, 0x2f, 0x63, 0x6f, 0x6e, 0x76, 0x32, 0x64, 0x5f, 0x38, 0x2f, 0x42,
    0x69, 0x61, 0x73, 0x41, 0x64, 0x64, 0x3b, 0x73, 0x65, 0x71, 0x75, 0x65, 0x6e,
    0x74, 0x69, 0x61, 0x6c, 0x5f, 0x34, 0x2f, 0x63, 0x6f, 0x6e, 0x76, 0x32, 0x64,
    0x5f, 0x39, 0x2f, 0x43, 0x6f, 0x6e, 0x76, 0x32, 0x44, 0x3b, 0x73, 0x65, 0x71,
    0x75, 0x65, 0x6e, 0x74, 0x69, 0x61, 0x6c, 0x5f, 0x34, 0x2f, 0x63, 0x6f, 0x6e,
    0x76, 0x32, 0x64, 0x5f, 0x38, 0x2f, 0x43, 0x6f, 0x6e, 0x76, 0x32, 0x44, 0x3b,
    0x73, 0x65, 0x71, 0x75, 0x65, 0x6e, 0x74, 0x69, 0x61, 0x6c, 0x5f, 0x34, 0x2f,
    0x63, 0x6f, 0x6e, 0x76, 0x32, 0x64, 0x5f, 0x38, 0x2f, 0x42, 0x69, 0x61, 0x73,
    0x41, 0x64, 0x64, 0x2f, 0x52, 0x65, 0x61, 0x64, 0x56, 0x61, 0x72, 0x69, 0x61,
    0x62, 0x6c, 0x65, 0x4f, 0x70, 0x2f, 0x72, 0x65, 0x73, 0x6f, 0x75, 0x72, 0x63,
    0x65, 0x00, 0x00, 0x00, 0x00, 0x04, 0x00, 0x00, 0x00, 0x01, 0x00, 0x00, 0x00,
    0x1a, 0x00, 0x00, 0x00, 0x1a, 0x00, 0x00, 0x00, 0x04, 0x00, 0x00, 0x00, 0x0a,
    0xfe, 0xff, 0xff, 0x38, 0x00, 0x00, 0x00, 0x08, 0x00, 0x00, 0x00, 0x0c, 0x00,
    0x00, 0x00, 0x04, 0x00, 0x00, 0x00, 0x74, 0xfd, 0xff, 0xff, 0x1c, 0x00, 0x00,
    0x00, 0x73, 0x65, 0x71, 0x75, 0x65, 0x6e, 0x74, 0x69, 0x61, 0x6c, 0x5f, 0x34,
    0x2f, 0x63, 0x6f, 0x6e, 0x76, 0x32, 0x64, 0x5f, 0x39, 0x2f, 0x43, 0x6f, 0x6e,
    0x76, 0x32, 0x44, 0x00, 0x00, 0x00, 0x00, 0x04, 0x00, 0x00, 0x00, 0x04, 0x00,
    0x00, 0x00, 0x03, 0x00, 0x00, 0x00, 0x03, 0x00, 0x00, 0x00, 0x04, 0x00, 0x00,
    0x00, 0x5a, 0xfe, 0xff, 0xff, 0x38, 0x00, 0x00, 0x00, 0x07, 0x00, 0x00, 0x00,
    0x0c, 0x00, 0x00, 0x00, 0x04, 0x00, 0x00, 0x00, 0xc4, 0xfd, 0xff, 0xff, 0x1c,
    0x00, 0x00, 0x00, 0x73, 0x65, 0x71, 0x75, 0x65, 0x6e, 0x74, 0x69, 0x61, 0x6c,
    0x5f, 0x34, 0x2f, 0x63, 0x6f, 0x6e, 0x76, 0x32, 0x64, 0x5f, 0x38, 0x2f, 0x43,
    0x6f, 0x6e, 0x76, 0x32, 0x44, 0x00, 0x00, 0x00, 0x00, 0x04, 0x00, 0x00, 0x00,
    0x04, 0x00, 0x00, 0x00, 0x03, 0x00, 0x00, 0x00, 0x03, 0x00, 0x00, 0x00, 0x01,
    0x00, 0x00, 0x00, 0xaa, 0xfe, 0xff, 0xff, 0x34, 0x00, 0x00, 0x00, 0x06, 0x00,
    0x00, 0x00, 0x0c, 0x00, 0x00, 0x00, 0x04, 0x00, 0x00, 0x00, 0x14, 0xfe, 0xff,
    0xff, 0x1b, 0x00, 0x00, 0x00, 0x73, 0x65, 0x71, 0x75, 0x65, 0x6e, 0x74, 0x69,
    0x61, 0x6c, 0x5f, 0x34, 0x2f, 0x64, 0x65, 0x6e, 0x73, 0x65, 0x5f, 0x34, 0x2f,
    0x4d, 0x61, 0x74, 0x4d, 0x75, 0x6c, 0x00, 0x02, 0x00, 0x00, 0x00, 0x0a, 0x00,
    0x00, 0x00, 0x64, 0x00, 0x00, 0x00, 0x00, 0x00, 0x0e, 0x00, 0x18, 0x00, 0x08,
    0x00, 0x07, 0x00, 0x0c, 0x00, 0x10, 0x00, 0x14, 0x00, 0x0e, 0x00, 0x00, 0x00,
    0x00, 0x00, 0x00, 0x02, 0x38, 0x00, 0x00, 0x00, 0x05, 0x00, 0x00, 0x00, 0x0c,
    0x00, 0x00, 0x00, 0x04, 0x00, 0x00, 0x00, 0x6c, 0xfe, 0xff, 0xff, 0x1c, 0x00,
    0x00, 0x00, 0x73, 0x65, 0x71, 0x75, 0x65, 0x6e, 0x74, 0x69, 0x61, 0x6c, 0x5f,
    0x34, 0x2f, 0x66, 0x6c, 0x61, 0x74, 0x74, 0x65, 0x6e, 0x5f, 0x34, 0x2f, 0x43,
    0x6f, 0x6e, 0x73, 0x74, 0x00, 0x00, 0x00, 0x00, 0x01, 0x00, 0x00, 0x00, 0x02,
    0x00, 0x00, 0x00, 0x46, 0xff, 0xff, 0xff, 0x50, 0x00, 0x00, 0x00, 0x04, 0x00,
    0x00, 0x00, 0x0c, 0x00, 0x00, 0x00, 0x04, 0x00, 0x00, 0x00, 0xb0, 0xfe, 0xff,
    0xff, 0x34, 0x00, 0x00, 0x00, 0x73, 0x65, 0x71, 0x75, 0x65, 0x6e, 0x74, 0x69,
    0x61, 0x6c, 0x5f, 0x34, 0x2f, 0x64, 0x65, 0x6e, 0x73, 0x65, 0x5f, 0x34, 0x2f,
    0x42, 0x69, 0x61, 0x73, 0x41, 0x64, 0x64, 0x2f, 0x52, 0x65, 0x61, 0x64, 0x56,
    0x61, 0x72, 0x69, 0x61, 0x62, 0x6c, 0x65, 0x4f, 0x70, 0x2f, 0x72, 0x65, 0x73,
    0x6f, 0x75, 0x72, 0x63, 0x65, 0x00, 0x00, 0x00, 0x00, 0x01, 0x00, 0x00, 0x00,
    0x0a, 0x00, 0x00, 0x00, 0xa2, 0xff, 0xff, 0xff, 0x50, 0x00, 0x00, 0x00, 0x03,
    0x00, 0x00, 0x00, 0x0c, 0x00, 0x00, 0x00, 0x04, 0x00, 0x00, 0x00, 0x0c, 0xff,
    0xff, 0xff, 0x35, 0x00, 0x00, 0x00, 0x73, 0x65, 0x71, 0x75, 0x65, 0x6e, 0x74,
    0x69, 0x61, 0x6c, 0x5f, 0x34, 0x2f, 0x63, 0x6f, 0x6e, 0x76, 0x32, 0x64, 0x5f,
    0x39, 0x2f, 0x42, 0x69, 0x61, 0x73, 0x41, 0x64, 0x64, 0x2f, 0x52, 0x65, 0x61,
    0x64, 0x56, 0x61, 0x72, 0x69, 0x61, 0x62, 0x6c, 0x65, 0x4f, 0x70, 0x2f, 0x72,
    0x65, 0x73, 0x6f, 0x75, 0x72, 0x63, 0x65, 0x00, 0x00, 0x00, 0x01, 0x00, 0x00,
    0x00, 0x04, 0x00, 0x00, 0x00, 0x00, 0x00, 0x0e, 0x00, 0x14, 0x00, 0x04, 0x00,
    0x00, 0x00, 0x08, 0x00, 0x0c, 0x00, 0x10, 0x00, 0x0e, 0x00, 0x00, 0x00, 0x50,
    0x00, 0x00, 0x00, 0x02, 0x00, 0x00, 0x00, 0x0c, 0x00, 0x00, 0x00, 0x04, 0x00,
    0x00, 0x00, 0x78, 0xff, 0xff, 0xff, 0x35, 0x00, 0x00, 0x00, 0x73, 0x65, 0x71,
    0x75, 0x65, 0x6e, 0x74, 0x69, 0x61, 0x6c, 0x5f, 0x34, 0x2f, 0x63, 0x6f, 0x6e,
    0x76, 0x32, 0x64, 0x5f, 0x38, 0x2f, 0x42, 0x69, 0x61, 0x73, 0x41, 0x64, 0x64,
    0x2f, 0x52, 0x65, 0x61, 0x64, 0x56, 0x61, 0x72, 0x69, 0x61, 0x62, 0x6c, 0x65,
    0x4f, 0x70, 0x2f, 0x72, 0x65, 0x73, 0x6f, 0x75, 0x72, 0x63, 0x65, 0x00, 0x00,
    0x00, 0x01, 0x00, 0x00, 0x00, 0x04, 0x00, 0x00, 0x00, 0x14, 0x00, 0x18, 0x00,
    0x04, 0x00, 0x00, 0x00, 0x08, 0x00, 0x0c, 0x00, 0x10, 0x00, 0x00, 0x00, 0x00,
    0x00, 0x14, 0x00, 0x14, 0x00, 0x00, 0x00, 0x3c, 0x00, 0x00, 0x00, 0x01, 0x00,
    0x00, 0x00, 0x28, 0x00, 0x00, 0x00, 0x20, 0x00, 0x00, 0x00, 0x04, 0x00, 0x00,
    0x00, 0x04, 0x00, 0x00, 0x00, 0xff, 0xff, 0xff, 0xff, 0x1c, 0x00, 0x00, 0x00,
    0x1c, 0x00, 0x00, 0x00, 0x01, 0x00, 0x00, 0x00, 0x04, 0x00, 0x04, 0x00, 0x04,
    0x00, 0x00, 0x00, 0x07, 0x00, 0x00, 0x00, 0x69, 0x6e, 0x70, 0x75, 0x74, 0x5f,
    0x35, 0x00, 0x04, 0x00, 0x00, 0x00, 0x01, 0x00, 0x00, 0x00, 0x1c, 0x00, 0x00,
    0x00, 0x1c, 0x00, 0x00, 0x00, 0x01, 0x00, 0x00, 0x00, 0x05, 0x00, 0x00, 0x00,
    0x4c, 0x00, 0x00, 0x00, 0x38, 0x00, 0x00, 0x00, 0x28, 0x00, 0x00, 0x00, 0x18,
    0x00, 0x00, 0x00, 0x0c, 0x00, 0x00, 0x00, 0x00, 0x00, 0x06, 0x00, 0x08, 0x00,
    0x07, 0x00, 0x06, 0x00, 0x00, 0x00, 0x00, 0x00, 0x00, 0x19, 0xe2, 0xff, 0xff,
    0xff, 0x00, 0x00, 0x00, 0x09, 0x03, 0x00, 0x00, 0x00, 0xfa, 0xff, 0xff, 0xff,
    0x00, 0x16, 0x06, 0x00, 0x06, 0x00, 0x05, 0x00, 0x06, 0x00, 0x00, 0x00, 0x00,
    0x11, 0x0a, 0x00, 0x0c, 0x00, 0x07, 0x00, 0x00, 0x00, 0x08, 0x00, 0x0a, 0x00,
    0x00, 0x00, 0x00, 0x00, 0x00, 0x03, 0x02, 0x00, 0x00, 0x00,
};
const int mnist_tflite_len = 7680;
